/* Copyright 2023 The TensorFlow Authors. All Rights Reserved.

Licensed under the Apache License, Version 2.0 (the "License");
you may not use this file except in compliance with the License.
You may obtain a copy of the License at

    http://www.apache.org/licenses/LICENSE-2.0

Unless required by applicable law or agreed to in writing, software
distributed under the License is distributed on an "AS IS" BASIS,
WITHOUT WARRANTIES OR CONDITIONS OF ANY KIND, either express or implied.
See the License for the specific language governing permissions and
limitations under the License.
==============================================================================*/

// Automatically created from a TensorFlow Lite flatbuffer using the command:
// xxd -i model.tflite > model.cc

// This is a standard TensorFlow Lite model file that has been converted into a
// C data array, so it can be easily compiled into a binary for devices that
// don't have a file system.

// See train/README.md for a full description of the creation process.

#include "model.h"

// Keep aligned to 16 bytes for CMSIS
alignas(16) const unsigned char g_model[] = { 0x1c, 0x00, 0x00, 0x00, 0x54, 0x46, 0x4c, 0x33, 0x14, 0x00, 0x20, 0x00,
  0x1c, 0x00, 0x18, 0x00, 0x14, 0x00, 0x10, 0x00, 0x0c, 0x00, 0x00, 0x00,
  0x08, 0x00, 0x04, 0x00, 0x14, 0x00, 0x00, 0x00, 0x1c, 0x00, 0x00, 0x00,
  0x98, 0x00, 0x00, 0x00, 0xf0, 0x00, 0x00, 0x00, 0xd4, 0x21, 0x00, 0x00,
  0xe4, 0x21, 0x00, 0x00, 0x74, 0x26, 0x00, 0x00, 0x03, 0x00, 0x00, 0x00,
  0x01, 0x00, 0x00, 0x00, 0x10, 0x00, 0x00, 0x00, 0x00, 0x00, 0x0a, 0x00,
  0x10, 0x00, 0x0c, 0x00, 0x08, 0x00, 0x04, 0x00, 0x0a, 0x00, 0x00, 0x00,
  0x0c, 0x00, 0x00, 0x00, 0x1c, 0x00, 0x00, 0x00, 0x3c, 0x00, 0x00, 0x00,
  0x0f, 0x00, 0x00, 0x00, 0x73, 0x65, 0x72, 0x76, 0x69, 0x6e, 0x67, 0x5f,
  0x64, 0x65, 0x66, 0x61, 0x75, 0x6c, 0x74, 0x00, 0x01, 0x00, 0x00, 0x00,
  0x04, 0x00, 0x00, 0x00, 0x90, 0xff, 0xff, 0xff, 0x07, 0x00, 0x00, 0x00,
  0x04, 0x00, 0x00, 0x00, 0x08, 0x00, 0x00, 0x00, 0x6f, 0x75, 0x74, 0x70,
  0x75, 0x74, 0x5f, 0x30, 0x00, 0x00, 0x00, 0x00, 0x01, 0x00, 0x00, 0x00,
  0x04, 0x00, 0x00, 0x00, 0x16, 0xde, 0xff, 0xff, 0x04, 0x00, 0x00, 0x00,
  0x0f, 0x00, 0x00, 0x00, 0x6b, 0x65, 0x72, 0x61, 0x73, 0x5f, 0x74, 0x65,
  0x6e, 0x73, 0x6f, 0x72, 0x5f, 0x33, 0x36, 0x00, 0x02, 0x00, 0x00, 0x00,
  0x34, 0x00, 0x00, 0x00, 0x04, 0x00, 0x00, 0x00, 0xdc, 0xff, 0xff, 0xff,
  0x0a, 0x00, 0x00, 0x00, 0x04, 0x00, 0x00, 0x00, 0x13, 0x00, 0x00, 0x00,
  0x43, 0x4f, 0x4e, 0x56, 0x45, 0x52, 0x53, 0x49, 0x4f, 0x4e, 0x5f, 0x4d,
  0x45, 0x54, 0x41, 0x44, 0x41, 0x54, 0x41, 0x00, 0x08, 0x00, 0x0c, 0x00,
  0x08, 0x00, 0x04, 0x00, 0x08, 0x00, 0x00, 0x00, 0x09, 0x00, 0x00, 0x00,
  0x04, 0x00, 0x00, 0x00, 0x13, 0x00, 0x00, 0x00, 0x6d, 0x69, 0x6e, 0x5f,
  0x72, 0x75, 0x6e, 0x74, 0x69, 0x6d, 0x65, 0x5f, 0x76, 0x65, 0x72, 0x73,
  0x69, 0x6f, 0x6e, 0x00, 0x0b, 0x00, 0x00, 0x00, 0xe0, 0x20, 0x00, 0x00,
  0xd8, 0x20, 0x00, 0x00, 0x50, 0x20, 0x00, 0x00, 0x18, 0x20, 0x00, 0x00,
  0xfc, 0x1f, 0x00, 0x00, 0xac, 0x00, 0x00, 0x00, 0xa4, 0x00, 0x00, 0x00,
  0x9c, 0x00, 0x00, 0x00, 0x94, 0x00, 0x00, 0x00, 0x74, 0x00, 0x00, 0x00,
  0x04, 0x00, 0x00, 0x00, 0xbe, 0xde, 0xff, 0xff, 0x04, 0x00, 0x00, 0x00,
  0x60, 0x00, 0x00, 0x00, 0x10, 0x00, 0x00, 0x00, 0x00, 0x00, 0x00, 0x00,
  0x08, 0x00, 0x0e, 0x00, 0x08, 0x00, 0x04, 0x00, 0x08, 0x00, 0x00, 0x00,
  0x10, 0x00, 0x00, 0x00, 0x24, 0x00, 0x00, 0x00, 0x00, 0x00, 0x06, 0x00,
  0x08, 0x00, 0x04, 0x00, 0x06, 0x00, 0x00, 0x00, 0x04, 0x00, 0x00, 0x00,
  0x00, 0x00, 0x00, 0x00, 0x0c, 0x00, 0x18, 0x00, 0x14, 0x00, 0x10, 0x00,
  0x0c, 0x00, 0x04, 0x00, 0x0c, 0x00, 0x00, 0x00, 0xa9, 0x65, 0x13, 0x61,
  0xee, 0x41, 0xd2, 0x8c, 0x02, 0x00, 0x00, 0x00, 0x02, 0x00, 0x00, 0x00,
  0x04, 0x00, 0x00, 0x00, 0x06, 0x00, 0x00, 0x00, 0x32, 0x2e, 0x31, 0x39,
  0x2e, 0x30, 0x00, 0x00, 0x2a, 0xdf, 0xff, 0xff, 0x04, 0x00, 0x00, 0x00,
  0x10, 0x00, 0x00, 0x00, 0x31, 0x2e, 0x35, 0x2e, 0x30, 0x00, 0x00, 0x00,
  0x00, 0x00, 0x00, 0x00, 0x00, 0x00, 0x00, 0x00, 0x64, 0xdb, 0xff, 0xff,
  0x68, 0xdb, 0xff, 0xff, 0x6c, 0xdb, 0xff, 0xff, 0x52, 0xdf, 0xff, 0xff,
  0x04, 0x00, 0x00, 0x00, 0x40, 0x1f, 0x00, 0x00, 0x8a, 0xc8, 0x31, 0x3d,
  0xa4, 0xcf, 0x11, 0xbd, 0x4b, 0x86, 0x0b, 0xbc, 0x60, 0xfb, 0x15, 0x3c,
  0xf3, 0x2a, 0xcf, 0xbc, 0x6f, 0xb8, 0x60, 0x3d, 0x0b, 0xdb, 0x62, 0x3d,
  0xa5, 0xf2, 0x2f, 0x3d, 0xa7, 0x95, 0x37, 0x3b, 0xc2, 0xad, 0xb3, 0xbc,
  0x5c, 0x94, 0x22, 0xbd, 0x4e, 0x60, 0x97, 0xbd, 0x35, 0x65, 0xec, 0xbc,
  0x2b, 0x74, 0x7b, 0xbd, 0x75, 0x79, 0x0a, 0xbd, 0x53, 0x97, 0xcb, 0x3c,
  0x12, 0xea, 0x6c, 0x3d, 0x1d, 0xee, 0x1f, 0x3c, 0xc3, 0x23, 0x88, 0x3b,
  0x61, 0xf0, 0x11, 0xbd, 0x79, 0x91, 0x7a, 0xbd, 0x4d, 0xd4, 0x11, 0xbd,
  0x7f, 0x27, 0x9f, 0xbd, 0x46, 0x6b, 0x3a, 0xbd, 0xa8, 0x2e, 0x32, 0xbc,
  0x9b, 0x36, 0x44, 0x3d, 0xbc, 0xbb, 0xd5, 0xbc, 0xe3, 0x49, 0x10, 0xbd,
  0x06, 0xd1, 0x8f, 0x3c, 0x28, 0x27, 0x82, 0x3c, 0x77, 0x5b, 0x2a, 0xbd,
  0x0a, 0xd9, 0x7a, 0x3c, 0xcf, 0x58, 0x21, 0x3c, 0x19, 0xc3, 0x86, 0xbd,
  0x8a, 0xab, 0x9c, 0xbd, 0x5d, 0x37, 0xb3, 0x3c, 0x0c, 0x97, 0x56, 0xbd,
  0x96, 0x81, 0x5e, 0x3d, 0x73, 0x7b, 0xf6, 0x3c, 0x7d, 0x35, 0x43, 0xbd,
  0x33, 0x37, 0x88, 0xbd, 0x08, 0x40, 0x41, 0xbd, 0x41, 0x80, 0x7a, 0x3d,
  0xb5, 0x59, 0x25, 0xbd, 0x0b, 0xf0, 0x37, 0x3d, 0xd6, 0xc7, 0x36, 0xbd,
  0x48, 0xf6, 0x6a, 0xbd, 0xb5, 0x5e, 0x63, 0x3d, 0xcf, 0xbe, 0x27, 0xbc,
  0xcd, 0x0f, 0x84, 0x3c, 0xe4, 0xe1, 0x60, 0x3d, 0x73, 0x74, 0x3b, 0xbd,
  0x21, 0xfe, 0x8d, 0xbd, 0x14, 0x4d, 0x7c, 0xbd, 0x82, 0x0f, 0x16, 0x3c,
  0x0c, 0xf5, 0x3a, 0xbd, 0x49, 0xff, 0x82, 0x3c, 0x4d, 0xe6, 0x39, 0x3d,
  0x75, 0xc3, 0x02, 0xbd, 0xd1, 0xbe, 0x00, 0xbd, 0xf3, 0xeb, 0x19, 0x3c,
  0xcd, 0x94, 0x3a, 0x3d, 0xe3, 0xe1, 0x4a, 0x3d, 0xa9, 0x14, 0x03, 0x3d,
  0xb0, 0xb2, 0x8b, 0xbd, 0x28, 0x43, 0xc6, 0xbc, 0x48, 0xd5, 0x8b, 0xbd,
  0x51, 0x2a, 0x05, 0xbd, 0x9e, 0x17, 0xac, 0x3b, 0xd1, 0xf2, 0x81, 0xbd,
  0x0a, 0x3d, 0x5d, 0xbd, 0xf5, 0xa8, 0x63, 0xbd, 0xda, 0x29, 0x69, 0xbc,
  0xf6, 0x05, 0x0e, 0xbc, 0xcc, 0x7a, 0xb7, 0x3c, 0xf2, 0xff, 0xed, 0x3c,
  0x3b, 0xc3, 0xed, 0x3c, 0x3e, 0x99, 0xca, 0xbc, 0x92, 0x91, 0x10, 0x3c,
  0x57, 0xd7, 0x17, 0xbd, 0x57, 0x41, 0x09, 0x3d, 0x71, 0x80, 0xf2, 0xbb,
  0xff, 0xa1, 0xfb, 0xbc, 0x8d, 0x28, 0x57, 0x3c, 0x74, 0x60, 0xa8, 0x3c,
  0xb7, 0x00, 0x35, 0xbd, 0xbd, 0x38, 0x6a, 0xbd, 0x11, 0xdf, 0x9a, 0xbb,
  0xc5, 0xd4, 0x2b, 0x3d, 0x34, 0x0f, 0xe1, 0x3c, 0x5c, 0x24, 0xc4, 0xbc,
  0xab, 0x06, 0xbb, 0x3c, 0xe0, 0x10, 0x48, 0x3c, 0x44, 0xb9, 0x4f, 0xbc,
  0xe4, 0xe0, 0x39, 0xbd, 0x46, 0xa3, 0x75, 0xbd, 0x78, 0xf5, 0x33, 0xbd,
  0x86, 0x26, 0x80, 0x3d, 0x9e, 0x93, 0x26, 0xbb, 0xb0, 0x31, 0x82, 0x3c,
  0x89, 0xd5, 0xc6, 0xbc, 0x7e, 0x0b, 0xfc, 0xbc, 0x97, 0x26, 0xd8, 0x3c,
  0x2c, 0x30, 0xdd, 0xbc, 0x75, 0x18, 0xe6, 0x3c, 0xcb, 0x4b, 0xa5, 0x3c,
  0x6f, 0x89, 0xb3, 0x3c, 0xa1, 0xb4, 0x5c, 0x3c, 0x8f, 0xeb, 0xd0, 0xbc,
  0x27, 0xa1, 0xfa, 0xba, 0xd3, 0x29, 0xf3, 0xbc, 0x80, 0x3a, 0x14, 0x3c,
  0x3f, 0xe2, 0x67, 0xbd, 0x7e, 0x4c, 0xba, 0xbc, 0x7a, 0x04, 0x75, 0x3d,
  0xfa, 0x52, 0xbc, 0x3c, 0x40, 0x6f, 0xa8, 0x3b, 0x8e, 0xa4, 0x86, 0xbd,
  0x1d, 0x3b, 0x97, 0xbb, 0xb9, 0x92, 0x80, 0xbd, 0xbb, 0xd7, 0xf8, 0xba,
  0x87, 0x28, 0xd7, 0x3c, 0xaf, 0xf7, 0xbe, 0x3c, 0x94, 0x2e, 0x3e, 0xbd,
  0xb7, 0xa4, 0x9a, 0xbc, 0x4a, 0x5a, 0xeb, 0xbc, 0xe1, 0x56, 0xae, 0xbb,
  0x2e, 0x61, 0x0c, 0xbd, 0x9b, 0x01, 0xfb, 0x3c, 0x47, 0x37, 0x7a, 0xbd,
  0xf5, 0xb6, 0xed, 0x3c, 0x03, 0x4b, 0x59, 0xbd, 0xe5, 0xe5, 0x70, 0x3c,
  0x81, 0x23, 0x49, 0xbd, 0x2c, 0xa4, 0x7c, 0x3d, 0xe1, 0xe5, 0x1e, 0xbb,
  0xfb, 0x4a, 0x49, 0x3d, 0x0c, 0x90, 0xaa, 0xbc, 0xab, 0x47, 0x48, 0x3c,
  0xb8, 0x8c, 0xdc, 0xbc, 0x30, 0x46, 0x7a, 0xbd, 0xb0, 0xc3, 0x5e, 0xbd,
  0xc4, 0x5a, 0xf3, 0x3b, 0x26, 0xa8, 0x27, 0x3c, 0xb5, 0x71, 0x38, 0x3d,
  0x61, 0x73, 0x92, 0x3c, 0x66, 0xa2, 0x96, 0xbd, 0x6b, 0x23, 0x6b, 0xbd,
  0x57, 0xca, 0x25, 0xbd, 0x6c, 0xf4, 0x46, 0xbb, 0x68, 0x72, 0x0d, 0xbd,
  0x48, 0x3d, 0x98, 0x3c, 0xf8, 0x42, 0x6e, 0xbd, 0xbe, 0x1b, 0x0e, 0x3b,
  0x60, 0x47, 0x47, 0x3d, 0xdc, 0x5e, 0xec, 0xbc, 0xf9, 0x3e, 0x4b, 0x3d,
  0xa2, 0x1a, 0x41, 0x3d, 0x66, 0x00, 0x88, 0xbc, 0x30, 0xb2, 0x5c, 0x3d,
  0x38, 0xb3, 0xd4, 0xbc, 0xef, 0xe9, 0x70, 0xbd, 0xfd, 0xe4, 0xe4, 0x3c,
  0x62, 0x3f, 0xc8, 0x3c, 0xde, 0xf7, 0xf1, 0x3a, 0x05, 0x9e, 0xc8, 0xbc,
  0x67, 0x23, 0x52, 0x3d, 0x2d, 0xd8, 0x94, 0xbd, 0xfe, 0x40, 0x6f, 0xbc,
  0x42, 0xb5, 0x5b, 0xbd, 0x3b, 0x40, 0x93, 0xbd, 0x49, 0x32, 0x68, 0x3d,
  0x5b, 0x2e, 0xdd, 0x3c, 0xcf, 0xfc, 0xdc, 0x3a, 0x12, 0xa4, 0x62, 0x3d,
  0x03, 0x0f, 0x61, 0x3d, 0xe8, 0x19, 0xc3, 0xbc, 0xcb, 0x6c, 0x2b, 0xbd,
  0xca, 0x8c, 0x63, 0xbd, 0x40, 0x4b, 0x50, 0xbd, 0x04, 0x35, 0x11, 0xbd,
  0xdc, 0x1a, 0x89, 0x3a, 0x5c, 0xc1, 0x18, 0x3d, 0x17, 0xc6, 0x90, 0xbd,
  0xa7, 0xc2, 0x84, 0xbd, 0xe2, 0x7d, 0x5f, 0xbd, 0x75, 0x05, 0x71, 0xbd,
  0xec, 0xf8, 0x4e, 0xbd, 0xc0, 0xf9, 0x70, 0x3c, 0x0e, 0xc4, 0x77, 0xbd,
  0x0f, 0x64, 0xdd, 0xbc, 0x77, 0x06, 0x60, 0xbc, 0x32, 0xf9, 0x77, 0x3d,
  0x2f, 0x66, 0x1d, 0x3d, 0x50, 0xfe, 0xd0, 0x3c, 0x64, 0x01, 0x49, 0xbc,
  0xa2, 0xdc, 0x21, 0x3d, 0x61, 0x8b, 0xe2, 0xbc, 0xa7, 0x3c, 0x78, 0x3d,
  0x27, 0xdf, 0xe0, 0x3c, 0x95, 0x94, 0x2a, 0xc0, 0x89, 0x69, 0xbe, 0xbf,
  0x1b, 0xcb, 0x11, 0xc0, 0x1e, 0x8e, 0x33, 0x40, 0x5b, 0x9d, 0x25, 0xc0,
  0xf3, 0xf7, 0x31, 0xc0, 0x7d, 0x9c, 0x93, 0x3c, 0xf3, 0xfd, 0x61, 0xbf,
  0xf0, 0xf6, 0x14, 0xc0, 0x93, 0x15, 0x09, 0x40, 0xa6, 0x8d, 0x03, 0xc0,
  0x68, 0x74, 0xa6, 0xbe, 0xcd, 0x3f, 0xf6, 0xbf, 0xd6, 0x76, 0x0e, 0xc0,
  0xa9, 0x03, 0xfc, 0xbf, 0xbf, 0x1d, 0xfa, 0xbf, 0x85, 0xd4, 0x30, 0x40,
  0x25, 0xe6, 0x2e, 0xc0, 0xed, 0x58, 0x07, 0x40, 0x0a, 0x23, 0xeb, 0xbf,
  0x84, 0x4a, 0x03, 0xc0, 0x9b, 0x73, 0x2d, 0x40, 0x84, 0x6c, 0x19, 0xc0,
  0xb4, 0x68, 0x2e, 0x40, 0x0b, 0x71, 0x23, 0x40, 0x8e, 0x3c, 0x5f, 0x3e,
  0x5d, 0xc5, 0x30, 0x40, 0xa2, 0xac, 0xf8, 0xbf, 0x25, 0x6f, 0x83, 0xbf,
  0xea, 0x13, 0x0a, 0xc0, 0xfb, 0x5d, 0x24, 0x40, 0xbb, 0x08, 0x15, 0xc0,
  0xf8, 0xdc, 0x12, 0xc0, 0x8e, 0x82, 0x20, 0x40, 0x68, 0xd4, 0xaf, 0xbf,
  0x03, 0xb1, 0x25, 0xc0, 0xa6, 0x2f, 0xa5, 0xbf, 0xe5, 0x1b, 0xa9, 0xbf,
  0x2e, 0xaa, 0xd9, 0xbf, 0x11, 0x00, 0x1a, 0xc0, 0x9e, 0xcb, 0x2f, 0x40,
  0xbe, 0xed, 0xed, 0xbf, 0x31, 0xea, 0x34, 0xc0, 0xf8, 0x74, 0x2e, 0xc0,
  0x6b, 0x4b, 0x1e, 0xc0, 0xa7, 0x01, 0x1a, 0x40, 0xc7, 0x0b, 0x31, 0x40,
  0xf3, 0x92, 0x33, 0x40, 0xb4, 0x3d, 0xa7, 0xbf, 0xe7, 0x0f, 0x2f, 0x40,
  0x96, 0xe4, 0x0a, 0xc0, 0x9b, 0x75, 0x1b, 0x40, 0xf7, 0x5c, 0x2c, 0x40,
  0x11, 0x07, 0x29, 0xc0, 0x1a, 0xb2, 0x06, 0xc0, 0xcb, 0xa9, 0x31, 0x40,
  0xdf, 0x48, 0x02, 0xc0, 0x32, 0x5c, 0x2d, 0x40, 0xf7, 0x18, 0x14, 0xc0,
  0xef, 0x87, 0x07, 0xc0, 0x15, 0x6b, 0xd8, 0xbf, 0x60, 0x05, 0x2f, 0x40,
  0x67, 0xc1, 0x0e, 0xc0, 0x6c, 0x22, 0x70, 0xbf, 0x77, 0xc7, 0xfb, 0x3f,
  0x2e, 0x97, 0xba, 0xbf, 0x12, 0xca, 0xaa, 0xbf, 0xfe, 0x70, 0x8d, 0xbf,
  0xf3, 0x5a, 0x2c, 0x40, 0x1c, 0x5e, 0x2f, 0xc0, 0x6b, 0xd9, 0x22, 0xc0,
  0xc8, 0xa2, 0x20, 0xc0, 0x3a, 0xa2, 0x07, 0xc0, 0xb5, 0x93, 0xef, 0xbf,
  0xb0, 0xb2, 0x30, 0x40, 0x9b, 0x5d, 0x2b, 0x40, 0xd3, 0xe8, 0x2c, 0x40,
  0xfe, 0xf5, 0x2d, 0x40, 0xe5, 0x7a, 0xbb, 0xbf, 0x7d, 0xce, 0x2d, 0x40,
  0xb5, 0x38, 0xd7, 0xbf, 0xd7, 0xa8, 0xbd, 0xbf, 0x8b, 0x44, 0x28, 0x40,
  0x37, 0x98, 0x32, 0x40, 0x41, 0x18, 0x13, 0xbc, 0x1d, 0x8f, 0x23, 0xc0,
  0x25, 0xff, 0x2b, 0x40, 0x75, 0xfb, 0x18, 0xc0, 0x39, 0x5d, 0x17, 0x40,
  0x78, 0xfc, 0x32, 0x40, 0xe0, 0x03, 0x30, 0x40, 0x42, 0xb5, 0x32, 0x40,
  0x75, 0x4a, 0xd5, 0xbe, 0x7f, 0x18, 0xf1, 0xbf, 0x17, 0x0f, 0x03, 0x40,
  0x2d, 0x9e, 0x15, 0x40, 0x75, 0x06, 0x1f, 0xc0, 0x3e, 0x70, 0x16, 0xc0,
  0x01, 0xb1, 0x9a, 0xbf, 0xc7, 0xfd, 0x29, 0x40, 0x00, 0xab, 0xe6, 0xbe,
  0xaa, 0xbb, 0x2e, 0x40, 0x30, 0x12, 0xe3, 0xbf, 0x93, 0xe9, 0xea, 0x3e,
  0xb3, 0x23, 0x1a, 0x40, 0xcd, 0x27, 0xc4, 0x3f, 0x39, 0x19, 0xf7, 0xbf,
  0x06, 0x2a, 0xeb, 0xbf, 0x37, 0xcd, 0x63, 0xbd, 0xc9, 0x44, 0x24, 0xc0,
  0x6c, 0x3b, 0x33, 0x40, 0x04, 0x93, 0xe0, 0xbf, 0x3a, 0x53, 0x01, 0xc0,
  0x6b, 0x9d, 0xea, 0x3f, 0x6d, 0x35, 0x17, 0xc0, 0x8a, 0xe2, 0x18, 0xc0,
  0xdf, 0x73, 0x30, 0x40, 0x9d, 0x06, 0x30, 0x40, 0x6e, 0xcc, 0xa9, 0xbf,
  0x80, 0x50, 0x0c, 0xc0, 0x13, 0x32, 0x2e, 0x40, 0xf3, 0x32, 0xee, 0xbf,
  0x02, 0x54, 0x16, 0xc0, 0x0f, 0x51, 0xbc, 0x3f, 0x1d, 0x8c, 0x2f, 0x40,
  0x70, 0x40, 0x2b, 0xc0, 0x2a, 0xdc, 0x05, 0x40, 0x2a, 0x64, 0x2f, 0xc0,
  0xef, 0x49, 0xbe, 0xbf, 0x45, 0xb4, 0x00, 0xc0, 0x12, 0xf3, 0xec, 0xbf,
  0x7f, 0xb1, 0x09, 0xc0, 0xa5, 0xc4, 0xf6, 0x3d, 0x4e, 0xc1, 0x32, 0x40,
  0x87, 0x7a, 0xb1, 0x3c, 0x67, 0xd5, 0x2f, 0xc0, 0xf8, 0x4b, 0x27, 0xc0,
  0x11, 0x6a, 0x29, 0x40, 0xab, 0x46, 0x28, 0xbf, 0xa4, 0x0c, 0x1e, 0xc0,
  0xd4, 0xc4, 0x26, 0xc0, 0x6a, 0xd6, 0x17, 0xc0, 0x47, 0xdc, 0x12, 0x40,
  0xa0, 0xcd, 0x8a, 0x3f, 0xbb, 0xa1, 0x2e, 0x40, 0x5a, 0x0f, 0x24, 0xc0,
  0x6f, 0x4e, 0x2e, 0xc0, 0x48, 0x96, 0x31, 0x40, 0x80, 0x78, 0x10, 0xbf,
  0x59, 0xd2, 0xa2, 0xbf, 0xd5, 0xee, 0xcd, 0xbf, 0xfa, 0xbd, 0x31, 0xc0,
  0x08, 0x3f, 0x33, 0x40, 0x9e, 0xe5, 0x2a, 0xc0, 0xcf, 0x5f, 0x2c, 0xc0,
  0x6e, 0x97, 0xc8, 0xbf, 0x75, 0xb6, 0x24, 0xbf, 0xe4, 0x37, 0x1b, 0x40,
  0xbb, 0x3c, 0x23, 0xc0, 0x97, 0xde, 0x20, 0xc0, 0x32, 0xbd, 0x2b, 0x40,
  0xa5, 0x4e, 0x2e, 0x40, 0xdc, 0x39, 0x26, 0xc0, 0xac, 0xd9, 0x88, 0x3f,
  0x73, 0x58, 0x32, 0x40, 0x99, 0x28, 0x9e, 0xbf, 0xb1, 0x99, 0x2e, 0xc0,
  0x55, 0x47, 0x34, 0xc0, 0x2e, 0xa1, 0x31, 0xc0, 0x7a, 0x2f, 0x29, 0x40,
  0x22, 0x31, 0x02, 0xbf, 0xd8, 0xcc, 0xf0, 0xbf, 0x17, 0xe7, 0x32, 0xc0,
  0x24, 0x84, 0x2a, 0xbf, 0x73, 0xad, 0x12, 0xc0, 0xf4, 0x55, 0x95, 0xbf,
  0x3e, 0xba, 0x18, 0x3b, 0xd3, 0xd0, 0x1b, 0xc0, 0x77, 0x28, 0x28, 0xc0,
  0x12, 0x4e, 0x99, 0xbe, 0x20, 0xad, 0x25, 0xc0, 0x75, 0x90, 0x2d, 0xbf,
  0xee, 0xe3, 0xd9, 0xbe, 0x68, 0x4c, 0x07, 0x40, 0xeb, 0x25, 0x30, 0xc0,
  0x5a, 0x74, 0x69, 0xbe, 0x5e, 0xea, 0x30, 0x40, 0x96, 0x4c, 0x27, 0xc0,
  0x0e, 0x31, 0x66, 0xbf, 0x33, 0xf2, 0x7e, 0xbf, 0xf5, 0xbd, 0xa0, 0x3f,
  0x96, 0xb3, 0xd4, 0xbf, 0xcc, 0x73, 0xb2, 0xbe, 0x9f, 0x99, 0xb1, 0xbf,
  0x42, 0x2f, 0xa5, 0xbf, 0xf3, 0xa0, 0x3a, 0xc0, 0x46, 0xbf, 0xd8, 0xbf,
  0xf2, 0x72, 0x32, 0xc0, 0x15, 0x70, 0xc9, 0xbf, 0x00, 0x59, 0xd5, 0xbf,
  0xe6, 0xc4, 0x9b, 0xbc, 0x6c, 0x79, 0x87, 0x3c, 0x3a, 0x45, 0x10, 0x3d,
  0x22, 0x0a, 0x1c, 0x3d, 0x35, 0x14, 0x41, 0xbd, 0x78, 0x99, 0x30, 0xbd,
  0x48, 0xf7, 0x4e, 0xbd, 0x4a, 0x63, 0x7c, 0x3d, 0x1b, 0x6d, 0x8e, 0xbd,
  0x6a, 0x72, 0x4f, 0x3d, 0x62, 0x80, 0x5b, 0x3d, 0xaa, 0x8c, 0x72, 0x3d,
  0x70, 0x31, 0xe4, 0x3c, 0x70, 0x6c, 0x68, 0xbd, 0xe5, 0x24, 0x0a, 0xbd,
  0x4a, 0x61, 0xcc, 0xbc, 0x04, 0x25, 0x8e, 0xbd, 0x94, 0xd5, 0x3f, 0xbd,
  0xc3, 0x0d, 0x81, 0x3d, 0xc0, 0x92, 0xd0, 0xba, 0x20, 0xa5, 0x37, 0xbd,
  0x2e, 0xee, 0x1c, 0x3d, 0x28, 0x17, 0x84, 0xbd, 0x88, 0xd1, 0x08, 0x3c,
  0x17, 0x1d, 0x76, 0xbd, 0x88, 0x56, 0x85, 0xbd, 0x48, 0xca, 0x99, 0x3c,
  0x10, 0x6c, 0xc1, 0xbb, 0x32, 0x8c, 0x38, 0xbd, 0xa0, 0x6d, 0x46, 0x3b,
  0xae, 0xf3, 0xc8, 0xbc, 0xcc, 0x4d, 0x92, 0x3c, 0x8e, 0x5f, 0x29, 0x3d,
  0xbc, 0xf0, 0x44, 0xbd, 0x38, 0xd1, 0x1c, 0x3d, 0xc6, 0x50, 0x3b, 0xbd,
  0x40, 0x86, 0x23, 0xbc, 0x86, 0xc2, 0x76, 0x3d, 0x0e, 0x02, 0x64, 0x3d,
  0xe4, 0xb3, 0xdb, 0x3c, 0xc8, 0xed, 0xad, 0x3c, 0xe1, 0xb5, 0x8b, 0x3d,
  0xce, 0xc3, 0x76, 0x3d, 0x80, 0x3b, 0xb8, 0x3a, 0xae, 0xcf, 0x38, 0xbd,
  0x00, 0x49, 0x17, 0xbd, 0xf7, 0x70, 0x48, 0xbd, 0x20, 0xfb, 0x98, 0x3b,
  0xa7, 0x30, 0x75, 0xbd, 0xc0, 0xa6, 0x0d, 0x3b, 0x11, 0x7d, 0x87, 0x3d,
  0xc0, 0x5e, 0xbb, 0x3c, 0x04, 0x16, 0x9b, 0xbc, 0x48, 0xb6, 0x9e, 0x3c,
  0x38, 0x7a, 0x7c, 0xbd, 0x10, 0xfb, 0x57, 0x3d, 0x4c, 0x83, 0x56, 0xbd,
  0x70, 0x00, 0x80, 0x3c, 0x9c, 0x53, 0xa3, 0x3c, 0xa0, 0x3c, 0x34, 0x3c,
  0xc8, 0x38, 0x32, 0x3c, 0xb8, 0xfe, 0x58, 0x3d, 0x9c, 0xcf, 0xe6, 0x3c,
  0x62, 0x79, 0x5a, 0x3d, 0x25, 0x0f, 0x09, 0xbd, 0x6c, 0xdd, 0x71, 0xbc,
  0xba, 0x5e, 0x78, 0xbd, 0xfc, 0xf1, 0x31, 0x3d, 0x1f, 0x4a, 0x50, 0xbd,
  0x36, 0xda, 0x72, 0xbd, 0x90, 0x56, 0xa2, 0x3c, 0xa4, 0xae, 0xa8, 0x3c,
  0xfe, 0xd9, 0xaf, 0xbc, 0xf4, 0x1d, 0x3b, 0x3d, 0x2a, 0xb7, 0x6b, 0x3d,
  0xaa, 0xa8, 0x15, 0xbd, 0xae, 0x45, 0x6f, 0x3d, 0xd0, 0x11, 0x1f, 0x3c,
  0xf8, 0xcc, 0x3f, 0xbd, 0x04, 0xf3, 0x43, 0x3d, 0xa0, 0xb6, 0x13, 0x3c,
  0x32, 0x56, 0xcf, 0xbc, 0x58, 0xb6, 0x72, 0xbd, 0xa4, 0x39, 0x4d, 0xbc,
  0xe8, 0xe8, 0x5e, 0xbd, 0x14, 0x2e, 0x1e, 0x3d, 0x9c, 0xcb, 0x96, 0xbc,
  0xb8, 0x6b, 0x20, 0x3d, 0x40, 0x4c, 0x84, 0x3b, 0xb4, 0x5b, 0x86, 0xbd,
  0xf0, 0xf3, 0x16, 0x3c, 0x38, 0x64, 0x7a, 0x3c, 0xc0, 0xb5, 0xae, 0x3b,
  0x30, 0x18, 0x53, 0x3c, 0xd2, 0xaf, 0x22, 0xbd, 0x7f, 0x9a, 0x89, 0x3d,
  0xd4, 0xe4, 0x3d, 0x3d, 0x64, 0xf0, 0x21, 0x3d, 0x8f, 0xce, 0x8f, 0x3d,
  0x40, 0xcd, 0xe6, 0x3c, 0x8c, 0xec, 0x98, 0xbc, 0x27, 0x13, 0x87, 0x3d,
  0xca, 0xdb, 0x58, 0x3d, 0xcb, 0x12, 0x6d, 0xbd, 0xac, 0xd1, 0x49, 0xbc,
  0x3c, 0x21, 0x96, 0xbc, 0x2a, 0x9e, 0xe1, 0xbc, 0x9e, 0x63, 0x73, 0x3d,
  0xd8, 0xbf, 0x63, 0x3c, 0xf0, 0x8a, 0x15, 0x3d, 0x50, 0xb8, 0xd0, 0xbc,
  0xce, 0x57, 0x24, 0x3d, 0x20, 0x9f, 0x04, 0xbc, 0xe6, 0x41, 0x13, 0x3d,
  0x24, 0xd4, 0xb1, 0x3c, 0x34, 0x51, 0xab, 0x3c, 0x06, 0x68, 0x60, 0x3d,
  0xd8, 0xa3, 0x39, 0x3c, 0xc0, 0x78, 0x7d, 0xbb, 0x00, 0x53, 0x56, 0x3a,
  0x36, 0xe1, 0x29, 0x3d, 0x42, 0x21, 0x7f, 0x3d, 0x84, 0xe4, 0x4a, 0xbd,
  0xdc, 0x0d, 0x10, 0x3d, 0x36, 0xa5, 0xb9, 0xbc, 0x3e, 0x16, 0x4a, 0x3d,
  0xfe, 0xb8, 0xc4, 0xbc, 0x7e, 0x71, 0x39, 0xbd, 0x8e, 0xaa, 0x9a, 0xbc,
  0xe2, 0x63, 0xe6, 0xbc, 0x06, 0x77, 0xa5, 0xbc, 0x56, 0x83, 0x4f, 0xbd,
  0x01, 0x64, 0x8f, 0x3d, 0x7f, 0xdb, 0x4c, 0xbd, 0x60, 0x2c, 0x53, 0x3d,
  0x40, 0x4c, 0xd6, 0x3b, 0x0a, 0x5c, 0x4f, 0x3d, 0xb2, 0xbd, 0x59, 0x3d,
  0x66, 0x92, 0x34, 0x3d, 0x7c, 0x86, 0x33, 0x3d, 0xa0, 0x1d, 0x3c, 0xbb,
  0xd2, 0x67, 0x7e, 0x3d, 0xba, 0x72, 0x7d, 0x3d, 0x6c, 0x31, 0xa7, 0xbc,
  0xa0, 0xeb, 0x77, 0xbb, 0xcc, 0xc8, 0xa0, 0xbc, 0xaa, 0x36, 0x70, 0x3d,
  0x13, 0x33, 0x07, 0xbd, 0x12, 0x0a, 0x51, 0x3d, 0x38, 0x9c, 0x1f, 0xbd,
  0x3c, 0x52, 0x0e, 0xbd, 0x54, 0x75, 0x8b, 0x3c, 0xde, 0xbf, 0xe9, 0xbc,
  0x60, 0x3d, 0xed, 0x3c, 0xe8, 0x6f, 0x28, 0xbc, 0xb0, 0xa4, 0x31, 0x3d,
  0x32, 0x27, 0xc9, 0xbc, 0x8c, 0x87, 0x95, 0x3c, 0xc2, 0xee, 0x84, 0xbd,
  0x9e, 0x77, 0x34, 0x3d, 0xf2, 0x69, 0x67, 0x3d, 0xf4, 0x69, 0x90, 0x3c,
  0x63, 0x56, 0x7e, 0xbd, 0xa2, 0x8d, 0x9a, 0xbc, 0x88, 0xf4, 0xba, 0x3c,
  0x2c, 0xaa, 0xf1, 0x3c, 0x54, 0xfa, 0xe2, 0xbc, 0xd2, 0x47, 0x11, 0x3d,
  0xb8, 0x57, 0x1c, 0x3c, 0xf3, 0x7b, 0x8d, 0x3d, 0xf0, 0xcc, 0x3e, 0x3c,
  0x64, 0x3c, 0x7b, 0xbc, 0x2e, 0xac, 0x1b, 0x3d, 0x78, 0x47, 0x3c, 0xbc,
  0x82, 0x9c, 0xd7, 0xbc, 0xba, 0x71, 0x2e, 0x3d, 0xd0, 0xd6, 0x70, 0x3c,
  0x90, 0x85, 0x5d, 0xbd, 0xb4, 0xab, 0x0b, 0xbc, 0x56, 0x71, 0x40, 0x3d,
  0xe2, 0x47, 0xfa, 0xbc, 0x74, 0x6a, 0x16, 0xbc, 0x98, 0xe9, 0x37, 0x3d,
  0x80, 0xf7, 0xf6, 0x3c, 0x8e, 0xbe, 0x01, 0x3d, 0xaf, 0x6c, 0x82, 0x3d,
  0x95, 0x7a, 0x47, 0xbd, 0xfa, 0xec, 0x24, 0xbd, 0xc8, 0x12, 0x91, 0x3c,
  0x10, 0xd2, 0xcc, 0x3c, 0xe6, 0xcc, 0xbf, 0xbc, 0x30, 0xa4, 0xe7, 0x3b,
  0xdc, 0x9e, 0x27, 0x3d, 0x92, 0xc1, 0x82, 0xbc, 0xad, 0x81, 0x84, 0x3d,
  0x74, 0x49, 0xe6, 0x3c, 0xee, 0xb5, 0x0f, 0xbd, 0xf3, 0x0f, 0x86, 0x3d,
  0x76, 0xb4, 0x10, 0x3d, 0xfb, 0x4b, 0x8c, 0x3d, 0x0a, 0x7c, 0x72, 0xbd,
  0x20, 0xc3, 0xbc, 0xbb, 0x56, 0x3f, 0x68, 0xbd, 0x2a, 0xf9, 0x68, 0x3d,
  0x50, 0x47, 0x60, 0xbc, 0x90, 0x65, 0x19, 0x3d, 0x54, 0x67, 0xfd, 0x3c,
  0xe6, 0x5d, 0x14, 0xbd, 0xb8, 0xe4, 0x25, 0x3d, 0x2c, 0xc4, 0x88, 0xbd,
  0x96, 0x6b, 0x78, 0x3d, 0x6e, 0x5f, 0xd6, 0xbc, 0x44, 0xb0, 0x99, 0x3c,
  0xb8, 0x76, 0x2b, 0x3d, 0x62, 0xbe, 0x8c, 0xbd, 0xc8, 0x47, 0xdb, 0x3c,
  0x06, 0x9f, 0x61, 0xbd, 0xa8, 0xe5, 0x12, 0x3d, 0x82, 0xf4, 0x7d, 0x3d,
  0x56, 0x99, 0x22, 0x3d, 0xea, 0xad, 0x03, 0x3d, 0xd8, 0x86, 0x22, 0xbc,
  0xca, 0xb7, 0x6a, 0xbd, 0xc0, 0xac, 0x0a, 0x3b, 0x9a, 0x56, 0x67, 0xbd,
  0x23, 0xf9, 0x89, 0x3d, 0x5c, 0x4e, 0x88, 0xbd, 0xb1, 0xca, 0x81, 0x3d,
  0x79, 0x87, 0x80, 0x3d, 0x2c, 0x5b, 0x2c, 0x3d, 0x8c, 0xc6, 0xfd, 0x3c,
  0x62, 0x85, 0x54, 0xbd, 0x96, 0xb1, 0x62, 0x3d, 0x4a, 0x54, 0x5a, 0x3d,
  0xf0, 0xb1, 0x14, 0x3c, 0x0e, 0x9d, 0x2f, 0x3d, 0x42, 0x04, 0x79, 0xbd,
  0x0a, 0x61, 0x51, 0xbd, 0xd6, 0x83, 0xc6, 0xbc, 0xc8, 0x7f, 0x05, 0xbd,
  0x24, 0xc2, 0xf5, 0xbc, 0xab, 0x74, 0x87, 0x3d, 0x18, 0xa4, 0x22, 0xbd,
  0x1e, 0x73, 0xac, 0xbc, 0x00, 0x16, 0xcd, 0xba, 0x34, 0x4c, 0x0f, 0x3d,
  0x7a, 0x20, 0x17, 0x3d, 0x80, 0x95, 0x07, 0x3b, 0x0b, 0xfe, 0x8f, 0x3d,
  0x98, 0x2f, 0x3c, 0xbd, 0xa0, 0x2a, 0x27, 0x3b, 0x88, 0xdf, 0x05, 0xbc,
  0xe0, 0x3c, 0x66, 0xbb, 0xf8, 0xbc, 0x62, 0x3c, 0xe6, 0x8e, 0x01, 0xbd,
  0x48, 0x40, 0xca, 0x3c, 0xe9, 0x98, 0x19, 0xbd, 0x6e, 0xa9, 0x7c, 0xbd,
  0x84, 0x30, 0xeb, 0x3c, 0xc0, 0x44, 0x4f, 0xbb, 0xe0, 0xd0, 0x0b, 0x3d,
  0x2c, 0xf2, 0x0a, 0x3d, 0xc0, 0x6f, 0x34, 0x3d, 0x50, 0x0a, 0xe4, 0x3b,
  0xe0, 0x0e, 0x52, 0xbb, 0xc2, 0x99, 0xe0, 0xbc, 0x77, 0x2b, 0x84, 0x3d,
  0x1a, 0x01, 0x7c, 0x3d, 0x52, 0x55, 0x25, 0xbd, 0x14, 0x7e, 0x92, 0x3c,
  0x30, 0x29, 0x5c, 0xbc, 0x4a, 0x0b, 0x37, 0x3d, 0xa1, 0x78, 0x85, 0x3d,
  0x3c, 0x9f, 0x65, 0xbc, 0xea, 0x6b, 0x7a, 0x3d, 0xc4, 0x62, 0x22, 0xbd,
  0x86, 0x41, 0x0c, 0xbd, 0x8e, 0x1a, 0x94, 0xbc, 0xe7, 0xd1, 0x8b, 0xbd,
  0x15, 0xfe, 0x86, 0x3d, 0xb6, 0x5b, 0x4f, 0x3d, 0x19, 0xef, 0x64, 0xbd,
  0x00, 0x73, 0x7b, 0xbb, 0x70, 0x24, 0x09, 0x3d, 0x68, 0xf9, 0x8d, 0xbd,
  0xe6, 0xa1, 0x1f, 0x3d, 0xd0, 0x28, 0xad, 0x3b, 0xe0, 0xe8, 0x0e, 0x3b,
  0xe1, 0x0c, 0x63, 0xbd, 0x60, 0x8e, 0x2f, 0x3c, 0x01, 0xb7, 0x90, 0x3d,
  0x34, 0x8c, 0xbb, 0x3c, 0xe0, 0xa1, 0xd5, 0x3c, 0x9c, 0x39, 0x2e, 0xbd,
  0x20, 0x40, 0xbb, 0xbb, 0x08, 0x23, 0x51, 0x3c, 0xb0, 0x8a, 0x2b, 0xbc,
  0xbe, 0xc6, 0x83, 0xbc, 0xcf, 0x37, 0x90, 0x3d, 0x40, 0xdd, 0xc3, 0x3b,
  0xf1, 0x99, 0x89, 0xbd, 0x46, 0xe7, 0x7c, 0xbd, 0x48, 0x3f, 0xbc, 0x3c,
  0x6c, 0xeb, 0x87, 0xbd, 0xd2, 0x46, 0x05, 0x3d, 0x60, 0x06, 0xbd, 0x3c,
  0x42, 0x76, 0x84, 0xbd, 0x7c, 0x89, 0xd0, 0x3c, 0x12, 0x79, 0x5f, 0x3d,
  0x48, 0xb0, 0xdc, 0x3c, 0x9c, 0xac, 0xf7, 0x3c, 0x9f, 0xc7, 0x72, 0xbd,
  0x00, 0x14, 0xb3, 0x3c, 0x70, 0xbb, 0xb8, 0x3c, 0x7c, 0x5c, 0x6e, 0xbc,
  0x41, 0x68, 0x23, 0xbd, 0xdb, 0x71, 0x62, 0xbd, 0x90, 0x82, 0x94, 0x3b,
  0xc0, 0xfa, 0x40, 0xbd, 0x30, 0x07, 0x2e, 0xbc, 0x32, 0x22, 0x13, 0x3d,
  0x10, 0x06, 0x94, 0x3c, 0xe0, 0xbe, 0x3f, 0xbb, 0xa9, 0xee, 0x87, 0x3d,
  0x88, 0x0d, 0x72, 0xbc, 0x70, 0x61, 0x76, 0x3c, 0x4e, 0x81, 0x22, 0xbd,
  0xbe, 0x06, 0x51, 0x3d, 0x17, 0xee, 0x06, 0xbd, 0x98, 0x69, 0x35, 0xbd,
  0x41, 0xa9, 0x6e, 0xbd, 0x0c, 0x45, 0xa2, 0x3c, 0x48, 0x80, 0x58, 0x3d,
  0xb8, 0xd9, 0x62, 0xbd, 0xb4, 0xcc, 0x0d, 0xbc, 0x00, 0xbb, 0x05, 0x3d,
  0x90, 0x40, 0x01, 0x3c, 0x98, 0x26, 0x8e, 0x3c, 0xca, 0x6b, 0xd0, 0xbc,
  0x77, 0x90, 0x8b, 0xbd, 0x34, 0xaa, 0x23, 0x3d, 0x00, 0x60, 0xe1, 0x3a,
  0x5c, 0xbf, 0x0b, 0xbc, 0x30, 0x21, 0x95, 0xbb, 0x28, 0xd5, 0xda, 0x3c,
  0x96, 0xaf, 0x8e, 0xbd, 0xe8, 0xf4, 0x1b, 0x3c, 0x92, 0x4c, 0xf6, 0xbc,
  0x4a, 0x1f, 0x6e, 0xbd, 0x2e, 0x22, 0x75, 0x3d, 0x04, 0xcf, 0x99, 0x3c,
  0x4c, 0x41, 0x58, 0xbc, 0x80, 0xac, 0x0b, 0x3a, 0x90, 0xcb, 0x94, 0xbc,
  0xdc, 0x30, 0xf0, 0xbc, 0xa8, 0xfe, 0x4d, 0x3d, 0xb0, 0xa9, 0x67, 0xbc,
  0x46, 0xd2, 0x68, 0x3d, 0xb5, 0xf1, 0x85, 0x3d, 0xf2, 0xcd, 0x2f, 0x3d,
  0xb2, 0x2a, 0x7e, 0x3d, 0x40, 0x9b, 0xc5, 0x3c, 0xef, 0x77, 0x59, 0xbd,
  0x00, 0x61, 0xc3, 0x3b, 0xc4, 0xae, 0x07, 0x3d, 0xac, 0xc3, 0x06, 0x3d,
  0x3a, 0x0a, 0x29, 0x3d, 0xe8, 0x57, 0x44, 0x3c, 0x98, 0x64, 0x2c, 0x3d,
  0x60, 0x9e, 0x01, 0xbb, 0x2e, 0xc7, 0x25, 0x3d, 0x6c, 0xf5, 0x90, 0xbc,
  0xf0, 0x4f, 0x87, 0xbb, 0x48, 0xfe, 0x01, 0x3c, 0x00, 0x63, 0x6b, 0x3c,
  0xdd, 0x9b, 0x6e, 0xbd, 0x60, 0x56, 0xff, 0xbb, 0x00, 0x49, 0x82, 0x3a,
  0xf3, 0x98, 0x09, 0xbd, 0x72, 0xfc, 0x48, 0x3d, 0x28, 0xff, 0x43, 0x3c,
  0xd0, 0x00, 0x4b, 0x3c, 0x10, 0x70, 0x63, 0xbc, 0xeb, 0x43, 0x84, 0x3d,
  0xa0, 0x90, 0x1c, 0x3c, 0x60, 0x54, 0xd8, 0xbb, 0xca, 0x2f, 0x7c, 0x3d,
  0x9c, 0xec, 0x2a, 0x3d, 0xc0, 0x74, 0x44, 0xbd, 0x80, 0x13, 0x2c, 0xbb,
  0x88, 0x91, 0x5a, 0xbc, 0x10, 0x57, 0x4c, 0x3d, 0x86, 0x52, 0x0e, 0x3d,
  0xa8, 0xa7, 0xee, 0xbc, 0xde, 0x44, 0xf6, 0xbc, 0x4a, 0x31, 0xd2, 0xbc,
  0x74, 0x74, 0x33, 0xbc, 0x10, 0xbb, 0x3e, 0x3d, 0xb0, 0xf6, 0xc3, 0x3c,
  0xd0, 0x54, 0xd5, 0xbb, 0x36, 0x2b, 0x29, 0x3d, 0xb4, 0x87, 0x46, 0x3d,
  0x98, 0xce, 0x24, 0x3c, 0x48, 0x90, 0x1b, 0x3d, 0x8e, 0xc7, 0x0a, 0x3d,
  0x60, 0x1b, 0x7a, 0x3b, 0x68, 0x2d, 0x03, 0x3d, 0x1c, 0xc0, 0xdd, 0x3c,
  0x08, 0xf6, 0xbb, 0x3c, 0x65, 0x9c, 0x80, 0xbd, 0xec, 0xec, 0xf3, 0xbc,
  0x02, 0xf3, 0x01, 0xbd, 0x60, 0xe1, 0x41, 0xbd, 0x20, 0xf9, 0x85, 0x3b,
  0x96, 0x8e, 0x33, 0xbd, 0x16, 0xc8, 0x65, 0x3d, 0x00, 0xb2, 0x73, 0x39,
  0x64, 0x72, 0xd1, 0xbc, 0x18, 0xdf, 0xcf, 0x3c, 0xf6, 0xee, 0xb8, 0xbc,
  0x8c, 0xd0, 0xe6, 0x3c, 0x46, 0xa8, 0x89, 0xbc, 0xba, 0x5d, 0x39, 0x3d,
  0xc0, 0x45, 0x73, 0x3c, 0xd8, 0xcd, 0xc5, 0xbc, 0x0a, 0x2e, 0xfe, 0xbc,
  0x82, 0x1f, 0x8f, 0xbd, 0xa4, 0xf4, 0x62, 0xbd, 0x5f, 0xd2, 0x8e, 0xbd,
  0x4c, 0x00, 0x7b, 0xbd, 0xba, 0x0e, 0x0b, 0x3d, 0x72, 0x00, 0xcd, 0xbc,
  0x70, 0x5a, 0xd6, 0xbb, 0xac, 0x50, 0xdf, 0x3c, 0x60, 0x7d, 0x05, 0xbb,
  0xe0, 0xbd, 0x36, 0x3c, 0x80, 0x40, 0x8d, 0x3c, 0xb3, 0xf2, 0x84, 0xbd,
  0xba, 0x1d, 0x4a, 0x3d, 0x4e, 0x90, 0x62, 0xbd, 0x90, 0x0f, 0xfb, 0xbb,
  0xe6, 0x89, 0x22, 0x3d, 0x56, 0xdc, 0x20, 0x3d, 0xd9, 0x6b, 0x89, 0x3d,
  0x61, 0x9e, 0x80, 0xbd, 0x34, 0xa0, 0x2e, 0x3d, 0x64, 0xc6, 0xab, 0x3c,
  0x64, 0xb7, 0x3d, 0x3d, 0xd8, 0xb6, 0x85, 0xbd, 0x62, 0x2c, 0xa5, 0xbc,
  0xc8, 0x48, 0x4e, 0x3d, 0x93, 0x9d, 0x8b, 0x3d, 0x00, 0x3a, 0xac, 0xbb,
  0x4a, 0x96, 0x22, 0x3d, 0x90, 0xac, 0x58, 0xbd, 0x82, 0xa8, 0x86, 0xbd,
  0x80, 0x90, 0x74, 0x3b, 0x9a, 0x09, 0x96, 0xbc, 0x25, 0x1e, 0x82, 0xbd,
  0x18, 0x45, 0x65, 0x3c, 0x64, 0xaa, 0x11, 0x3d, 0xf0, 0x11, 0x18, 0x3c,
  0xcb, 0xe0, 0x86, 0x3d, 0x00, 0xd1, 0x1d, 0x3d, 0x91, 0x4e, 0x83, 0xbd,
  0x68, 0x61, 0x8e, 0x3c, 0xa2, 0xc6, 0x81, 0xbd, 0x30, 0x6b, 0xcc, 0x3b,
  0x23, 0xe2, 0x87, 0x3d, 0x8b, 0xfb, 0x8b, 0x3d, 0x52, 0x2b, 0x83, 0xbc,
  0xa8, 0xe5, 0x7e, 0x3c, 0xe8, 0x74, 0x36, 0x3d, 0x36, 0x6e, 0x62, 0x3d,
  0x4a, 0x46, 0x14, 0xbd, 0x44, 0x48, 0x23, 0x3d, 0x28, 0xee, 0x1e, 0xbd,
  0x6a, 0x0c, 0x83, 0xbd, 0xe4, 0x8b, 0xb2, 0x3c, 0xba, 0x2a, 0x63, 0xbd,
  0x2b, 0x66, 0x8a, 0x3d, 0x34, 0x1d, 0x57, 0xbc, 0xe0, 0xa6, 0xab, 0x3c,
  0x14, 0xd2, 0xb6, 0x3c, 0x80, 0x14, 0x28, 0x3a, 0xc6, 0x6f, 0x73, 0xbd,
  0x2c, 0x55, 0x6a, 0xbd, 0x8a, 0x69, 0x6b, 0x3d, 0xe8, 0x80, 0x99, 0x3c,
  0xe4, 0x2e, 0xc3, 0xbc, 0x16, 0x68, 0xb2, 0xbc, 0x62, 0x2b, 0x7b, 0x3d,
  0xca, 0x4d, 0x27, 0xbd, 0xba, 0xe2, 0x61, 0x3d, 0xac, 0x30, 0x82, 0x3c,
  0x34, 0xb2, 0xb9, 0x3c, 0xbc, 0xb7, 0x4d, 0x3d, 0xdc, 0x7b, 0x77, 0xbd,
  0xf2, 0x91, 0x0b, 0x3d, 0x98, 0x7b, 0x8c, 0xbc, 0x4c, 0x37, 0x38, 0xbd,
  0x08, 0xf9, 0x30, 0x3d, 0x70, 0xe0, 0x00, 0x3c, 0x00, 0x10, 0xaf, 0x37,
  0xea, 0x4a, 0x85, 0xbd, 0x84, 0xe0, 0xd7, 0xbc, 0x30, 0x81, 0x3e, 0x3c,
  0xac, 0x92, 0x37, 0x3d, 0xb4, 0xb5, 0x18, 0xbc, 0xba, 0xdb, 0x31, 0x3d,
  0xc0, 0x0f, 0x20, 0xbb, 0x49, 0x3c, 0x80, 0xbd, 0x78, 0x06, 0xde, 0x3c,
  0x48, 0x20, 0x34, 0x3c, 0x78, 0x90, 0xac, 0x3c, 0xc2, 0x46, 0x55, 0xbd,
  0xc4, 0xe8, 0xdf, 0x3c, 0x02, 0x3c, 0x01, 0x3d, 0x54, 0xf8, 0xc0, 0x3c,
  0x5c, 0xaf, 0xd9, 0x3c, 0x90, 0xbd, 0xfc, 0xbc, 0x37, 0x3e, 0x87, 0x3d,
  0x86, 0x36, 0x47, 0x3d, 0x9e, 0xeb, 0x83, 0xbc, 0x8e, 0x0d, 0x90, 0xbd,
  0x80, 0x1f, 0x65, 0x3a, 0xda, 0xea, 0x38, 0x3d, 0xa0, 0x83, 0x0f, 0xbb,
  0x5d, 0x7c, 0x80, 0x3d, 0x11, 0x3d, 0x59, 0xbd, 0x60, 0x6d, 0x0b, 0xbc,
  0x88, 0xba, 0xa1, 0x3c, 0x30, 0x99, 0x8d, 0x3b, 0xd6, 0xa6, 0xb4, 0xbc,
  0xa8, 0xbf, 0x20, 0x3d, 0x34, 0x1a, 0x0e, 0xbc, 0xa2, 0xdf, 0x22, 0xbd,
  0xb0, 0x3b, 0x8e, 0xbc, 0x90, 0x95, 0x10, 0x3c, 0x00, 0x0c, 0x9a, 0xb8,
  0xf0, 0x43, 0x43, 0xbd, 0xf7, 0x76, 0x2a, 0xbd, 0x76, 0xc2, 0x1b, 0xbd,
  0x40, 0x62, 0xa1, 0x3c, 0xfe, 0x40, 0x6f, 0x3d, 0x43, 0x1c, 0x86, 0x3d,
  0x10, 0xa2, 0xd0, 0x3b, 0x80, 0xc5, 0x31, 0x3d, 0x0e, 0x29, 0x60, 0x3d,
  0xb0, 0x9e, 0x7e, 0xbd, 0x24, 0x0e, 0x2e, 0xbd, 0x1e, 0x1b, 0xb5, 0xbc,
  0x11, 0xa9, 0x46, 0xbd, 0xf4, 0x24, 0x0c, 0x3d, 0xe4, 0x5a, 0x3d, 0xbc,
  0x5e, 0xa2, 0xb0, 0xbc, 0xc0, 0x81, 0x14, 0x3d, 0x96, 0xcd, 0x71, 0x3d,
  0x7a, 0x0b, 0xb3, 0xbc, 0xe0, 0x0b, 0x17, 0xbb, 0x1a, 0xbc, 0x37, 0xbd,
  0x9e, 0x1c, 0x81, 0xbd, 0x8a, 0xf3, 0x2a, 0x3d, 0x50, 0xcf, 0x8e, 0x3c,
  0xd0, 0x6c, 0xc7, 0x3b, 0x30, 0x19, 0x07, 0xbd, 0x54, 0x00, 0x76, 0xbd,
  0x17, 0x8f, 0x87, 0x3d, 0x04, 0x28, 0xb7, 0x3c, 0x0a, 0x60, 0xc1, 0xbc,
  0x14, 0x8c, 0x58, 0x3d, 0x28, 0xd7, 0x1a, 0x3d, 0x30, 0x42, 0xbd, 0x3b,
  0x3c, 0x15, 0xd8, 0xbc, 0xfe, 0x78, 0xc3, 0xbc, 0xde, 0x0f, 0x17, 0x3d,
  0xb2, 0xc8, 0x08, 0x3d, 0x00, 0x7d, 0xb0, 0xb9, 0x05, 0x8e, 0x8a, 0xbd,
  0x71, 0x05, 0x10, 0xbd, 0xc6, 0xe2, 0x46, 0x3d, 0xe2, 0x42, 0x0c, 0xbd,
  0xd6, 0x5c, 0x53, 0xbd, 0x43, 0xc6, 0x89, 0x3d, 0x08, 0xdb, 0xd9, 0x3c,
  0x40, 0xef, 0x80, 0x3a, 0xd0, 0xd4, 0x89, 0x3b, 0xda, 0x8c, 0x07, 0xbd,
  0xc0, 0x71, 0x5d, 0xbb, 0x6e, 0x36, 0x61, 0x3d, 0xc0, 0x79, 0xaa, 0xbc,
  0xc9, 0x1d, 0x8c, 0x3d, 0x0e, 0x7c, 0xff, 0xbc, 0xc0, 0x95, 0x38, 0xbc,
  0xac, 0xd0, 0x53, 0x3d, 0x80, 0x08, 0xd4, 0x3b, 0x54, 0x39, 0x79, 0xbc,
  0xb2, 0xca, 0x1f, 0xbd, 0x84, 0x05, 0x44, 0x3d, 0xf8, 0xbb, 0x75, 0xbc,
  0x5e, 0xc9, 0x5f, 0xbd, 0x38, 0xfe, 0x00, 0x3c, 0xe2, 0xa5, 0x73, 0x3d,
  0xf0, 0xdd, 0x4a, 0xbd, 0x96, 0xf5, 0x58, 0x3d, 0xe8, 0xa8, 0xb6, 0x3c,
  0x4b, 0xf7, 0x8e, 0x3d, 0x5c, 0x26, 0x2e, 0xbd, 0x76, 0xc5, 0x0d, 0x3d,
  0xe6, 0x4c, 0x12, 0x3d, 0x22, 0x2f, 0xaf, 0xbc, 0xf8, 0x7b, 0x08, 0xbd,
  0x2f, 0xbf, 0x8f, 0x3d, 0x80, 0xec, 0xcb, 0x3a, 0xa1, 0xe0, 0x25, 0xbd,
  0xc8, 0xde, 0xc5, 0x3c, 0xc8, 0xe3, 0x87, 0xbc, 0xe2, 0xba, 0x48, 0x3d,
  0xab, 0xe0, 0x83, 0x3d, 0x6b, 0xb6, 0x78, 0xbd, 0xec, 0x6d, 0x4d, 0xbd,
  0x54, 0x03, 0x74, 0xbd, 0x80, 0x45, 0x62, 0xbb, 0xe0, 0x91, 0x52, 0x3d,
  0x06, 0x49, 0xc4, 0xbc, 0xd4, 0x44, 0x2e, 0xbd, 0x02, 0xbd, 0x8d, 0xbd,
  0x14, 0x6e, 0x77, 0xbd, 0x18, 0x7d, 0x29, 0x3d, 0x6c, 0xa6, 0xac, 0xbc,
  0xd2, 0x47, 0x27, 0x3d, 0x20, 0xee, 0x4f, 0x3d, 0x68, 0x4f, 0x58, 0xbd,
  0x2a, 0x27, 0x0a, 0x3d, 0x1a, 0xda, 0x34, 0x3d, 0xfa, 0x55, 0x7b, 0x3d,
  0x9e, 0x8e, 0x16, 0xbd, 0x67, 0xbc, 0x74, 0xbd, 0x02, 0x69, 0xbc, 0xbc,
  0xc8, 0x2d, 0x49, 0x3d, 0x6f, 0xdc, 0x80, 0xbd, 0x00, 0x7d, 0x44, 0x3c,
  0xb0, 0x0d, 0x1a, 0x3c, 0x30, 0xc4, 0x44, 0x3d, 0xbc, 0xf7, 0x87, 0x3c,
  0x80, 0xf1, 0x5e, 0xbb, 0x06, 0x13, 0x4e, 0x3d, 0xf8, 0x27, 0x3e, 0x3c,
  0x19, 0xca, 0x87, 0x3d, 0x9e, 0x97, 0x47, 0x3d, 0xac, 0x4b, 0xd3, 0x3c,
  0xc6, 0x40, 0x71, 0x3d, 0x30, 0xc1, 0x63, 0x3c, 0xd8, 0x1b, 0x32, 0xbc,
  0xd0, 0xd0, 0x0f, 0x3d, 0x91, 0xc5, 0x85, 0xbd, 0x78, 0x44, 0xdb, 0x3c,
  0x82, 0xf6, 0x70, 0x3d, 0x8d, 0x9c, 0x07, 0xbd, 0xe4, 0xeb, 0x30, 0xbd,
  0x97, 0x2d, 0x85, 0xbd, 0x00, 0x81, 0x9a, 0x3a, 0x34, 0xda, 0xf9, 0x3c,
  0x54, 0xa2, 0x57, 0xbd, 0x0e, 0xf4, 0x65, 0x3d, 0x2b, 0x63, 0x8c, 0x3d,
  0x00, 0x3d, 0x43, 0xbc, 0xa0, 0x6c, 0x91, 0xbc, 0xf0, 0xf7, 0x6c, 0xbc,
  0x5e, 0xd6, 0x37, 0x3d, 0x59, 0x63, 0x64, 0xbd, 0x40, 0xd9, 0x65, 0xbc,
  0x32, 0xc4, 0x56, 0xbd, 0x00, 0xb0, 0xdd, 0x37, 0x5e, 0xac, 0x2e, 0x3d,
  0x34, 0x50, 0xd8, 0x3c, 0x38, 0x22, 0xf0, 0x3c, 0xff, 0xef, 0x8b, 0x3d,
  0x70, 0xbf, 0x28, 0x3d, 0x79, 0xff, 0x80, 0x3d, 0xbb, 0x4e, 0x87, 0xbd,
  0x24, 0xf3, 0xee, 0x3c, 0x3b, 0xcf, 0x88, 0xbd, 0xac, 0xe8, 0x69, 0xbc,
  0x5c, 0xbb, 0xe4, 0x3c, 0x66, 0x8f, 0x0e, 0xbd, 0xc4, 0x20, 0x39, 0xbd,
  0xe4, 0xbf, 0xdf, 0x3c, 0x50, 0xee, 0xc1, 0xbb, 0x00, 0x0c, 0x8c, 0xba,
  0x1c, 0x18, 0x1f, 0xbc, 0xa8, 0x6a, 0x5d, 0x3d, 0x74, 0xf5, 0x04, 0x3d,
  0x50, 0x54, 0x9d, 0x3b, 0xc0, 0x96, 0x54, 0xbd, 0xe0, 0xd4, 0x79, 0xbb,
  0x71, 0xcb, 0x86, 0x3d, 0xe0, 0x67, 0x3f, 0xbd, 0xa6, 0xd3, 0xf4, 0xbc,
  0x40, 0xc5, 0xdf, 0x3c, 0x1e, 0x63, 0x28, 0x3d, 0x52, 0x54, 0x7a, 0x3d,
  0x3e, 0x7b, 0x14, 0xbd, 0xa0, 0x66, 0x4a, 0x3b, 0x5e, 0x3e, 0x82, 0xbd,
  0xc4, 0xc6, 0x3c, 0x3d, 0x50, 0xb9, 0x9d, 0x3b, 0xf4, 0x59, 0x16, 0x3d,
  0x50, 0xaf, 0x23, 0x3d, 0xee, 0x6a, 0x38, 0xbd, 0x70, 0x3f, 0x40, 0x3c,
  0x5c, 0x9f, 0x2d, 0xbc, 0xcc, 0xb5, 0x54, 0xbc, 0x4c, 0xd4, 0xcb, 0xbc,
  0x2e, 0x7d, 0x30, 0x3d, 0x04, 0x16, 0xd2, 0xbc, 0xae, 0x3c, 0x21, 0x3d,
  0xf4, 0x77, 0xcc, 0xbc, 0x59, 0x8c, 0x1e, 0xbd, 0x46, 0x04, 0xfb, 0xbc,
  0xa0, 0x39, 0x44, 0xbb, 0x78, 0xdf, 0x1e, 0x3c, 0xf8, 0xb7, 0x78, 0x3c,
  0xd5, 0x3d, 0x8d, 0xbd, 0xda, 0xe8, 0x22, 0x3d, 0xfe, 0xb3, 0x7c, 0x3d,
  0xf5, 0x4e, 0x0f, 0xbd, 0x22, 0x51, 0x59, 0xbd, 0xc8, 0xcc, 0x1e, 0x3c,
  0x91, 0x41, 0x0f, 0xbd, 0xb4, 0xf4, 0x7a, 0xbd, 0x9e, 0x60, 0x62, 0x3d,
  0x60, 0x83, 0x46, 0x3c, 0xa1, 0xad, 0x4f, 0xbd, 0xb8, 0x78, 0x9e, 0xbc,
  0x52, 0x65, 0x6f, 0x3d, 0x7e, 0xe3, 0x31, 0x3d, 0x0c, 0xf0, 0x44, 0xbc,
  0xc8, 0x0f, 0x68, 0x3c, 0x63, 0x7f, 0x81, 0x3d, 0x74, 0x45, 0xca, 0xbc,
  0x51, 0x4f, 0x67, 0xbd, 0x12, 0xa6, 0x2a, 0x3d, 0xac, 0x7a, 0x75, 0xbc,
  0xf8, 0xa5, 0xdd, 0x3c, 0xb0, 0xf0, 0x2f, 0x3d, 0xbb, 0x5b, 0x8c, 0xbd,
  0xb6, 0x22, 0x46, 0x3d, 0x3a, 0x3c, 0xf0, 0xbc, 0xca, 0x47, 0x44, 0x3d,
  0x9f, 0x27, 0x7c, 0xbd, 0xc0, 0x85, 0xf0, 0x3a, 0x01, 0x8a, 0x49, 0xbd,
  0xe2, 0xf5, 0x7c, 0xbd, 0x40, 0x0d, 0x2b, 0xbb, 0xf1, 0x51, 0x87, 0x3d,
  0x80, 0xb3, 0x7e, 0x3b, 0x08, 0xe8, 0x1a, 0xbc, 0x72, 0x93, 0x3e, 0xbd,
  0x20, 0xe0, 0xd1, 0x3b, 0x72, 0xc0, 0x3c, 0xbd, 0x1d, 0x89, 0x8f, 0x3d,
  0xee, 0x0a, 0x87, 0xbc, 0x79, 0xdc, 0x82, 0xbd, 0x2a, 0x19, 0x6d, 0xbd,
  0x94, 0x1e, 0xdc, 0x3c, 0xfa, 0x86, 0x12, 0x3d, 0xa0, 0x0e, 0x01, 0xbc,
  0xa4, 0x78, 0xce, 0x3c, 0x10, 0xf9, 0xc9, 0xbc, 0x52, 0xac, 0x37, 0xbd,
  0x55, 0x2a, 0x2a, 0xbd, 0xcb, 0x3e, 0x82, 0x3d, 0x28, 0xaf, 0x3a, 0x3c,
  0x49, 0x1f, 0x10, 0xbd, 0xec, 0xba, 0xc2, 0xbc, 0xfc, 0xde, 0x00, 0x3d,
  0x52, 0x30, 0x3d, 0x3d, 0x36, 0x6e, 0xb4, 0xbc, 0x50, 0xc3, 0x61, 0x3c,
  0xb7, 0xb8, 0x20, 0xbd, 0xa0, 0x8a, 0xf1, 0xbb, 0xa5, 0xc1, 0x29, 0xbd,
  0x10, 0x89, 0x39, 0xbd, 0x80, 0x1a, 0xa5, 0xbc, 0xa0, 0xbc, 0x5d, 0x3c,
  0x18, 0xca, 0x43, 0x3d, 0x60, 0x0e, 0x7d, 0xbd, 0x58, 0x28, 0x01, 0x3d,
  0x3e, 0xc0, 0xb2, 0xbc, 0x78, 0x3b, 0x04, 0x3c, 0x00, 0xcf, 0x28, 0xbd,
  0xb9, 0xd4, 0x84, 0xbd, 0xd4, 0xa0, 0xf4, 0x3c, 0xf3, 0x68, 0x87, 0xbd,
  0xc6, 0xa7, 0x01, 0x3d, 0xfe, 0x2b, 0x64, 0xbd, 0x17, 0x50, 0x2b, 0xbd,
  0x8e, 0x72, 0x5d, 0x3d, 0x40, 0x26, 0xf0, 0x3a, 0xb7, 0x06, 0x17, 0x40,
  0x7c, 0xcb, 0x0e, 0x40, 0xe6, 0x85, 0x19, 0x40, 0x98, 0xce, 0xa9, 0xbf,
  0x7f, 0x67, 0x1d, 0x40, 0xaa, 0xf1, 0x18, 0x40, 0xbf, 0x72, 0x01, 0x40,
  0xee, 0x88, 0x07, 0x40, 0xf2, 0xca, 0x11, 0x40, 0xc5, 0xec, 0x86, 0xbf,
  0x46, 0xdd, 0x13, 0x40, 0xb2, 0x79, 0xd5, 0x3f, 0xd8, 0xf5, 0x56, 0x3f,
  0x35, 0x17, 0x12, 0x40, 0xe8, 0xdc, 0x17, 0x40, 0xbb, 0x77, 0x18, 0x40,
  0x98, 0xb4, 0x87, 0xbf, 0xed, 0x77, 0x1f, 0x40, 0x5a, 0x51, 0xdd, 0xbf,
  0x11, 0x2b, 0x0e, 0x40, 0x2b, 0x3a, 0x0f, 0x40, 0x7e, 0xdd, 0xb9, 0xbf,
  0xbc, 0xfb, 0x7d, 0x3f, 0x9e, 0x60, 0xa4, 0xbf, 0x1a, 0xb6, 0xd3, 0xbf,
  0x9f, 0xde, 0xa5, 0x3f, 0x6f, 0xd0, 0xb1, 0xbf, 0xf8, 0xc9, 0xcf, 0x3f,
  0xf4, 0xd9, 0x0c, 0x40, 0x65, 0x46, 0xa4, 0xbf, 0xa5, 0x67, 0x54, 0xbf,
  0xe7, 0x3a, 0x09, 0x40, 0x1a, 0xb5, 0xde, 0x3f, 0xf0, 0x11, 0xc2, 0xbc,
  0x28, 0x16, 0x00, 0x40, 0x0c, 0x03, 0x09, 0x40, 0xa9, 0xc5, 0xae, 0x3d,
  0xbc, 0xba, 0x0b, 0x3f, 0x7d, 0x85, 0xf6, 0xbe, 0x76, 0xe3, 0x15, 0x40,
  0xfa, 0x3d, 0xa2, 0xbf, 0xe6, 0xa7, 0x0c, 0x40, 0xdf, 0x49, 0x24, 0x40,
  0x95, 0x7f, 0x21, 0x40, 0x63, 0x53, 0x14, 0x40, 0x56, 0x22, 0x06, 0x3e,
  0x9e, 0x46, 0xb2, 0xbf, 0x0b, 0x7a, 0xa2, 0xbf, 0x22, 0xaa, 0x07, 0x40,
  0x89, 0xf5, 0x85, 0xbf, 0x8d, 0x92, 0x11, 0x40, 0x15, 0x3b, 0xea, 0xbf,
  0x4a, 0x9c, 0x92, 0xbf, 0x2a, 0xc2, 0x19, 0x40, 0x7b, 0xe9, 0x13, 0x40,
  0x6b, 0x91, 0x9f, 0xbf, 0x61, 0x66, 0x17, 0x40, 0x15, 0xd5, 0x9c, 0xbf,
  0x94, 0x76, 0x91, 0xbe, 0xc2, 0x62, 0x89, 0x3e, 0xf8, 0x0a, 0x11, 0x40,
  0x1f, 0x69, 0xbc, 0xbf, 0x2b, 0xf4, 0x10, 0x3e, 0x69, 0x37, 0x09, 0x40,
  0xf1, 0x7d, 0xd0, 0xbf, 0x5b, 0x1c, 0x8d, 0x3e, 0x6e, 0x94, 0x81, 0x3f,
  0x7b, 0x2b, 0xf0, 0xbe, 0xf1, 0xf4, 0xa8, 0xbf, 0x29, 0xf4, 0x23, 0x40,
  0x0e, 0x10, 0x19, 0x40, 0x15, 0x16, 0x20, 0x40, 0x1c, 0xb1, 0x12, 0x40,
  0x13, 0xf7, 0x07, 0x40, 0x70, 0x2d, 0x9b, 0xbf, 0xfd, 0xfd, 0x96, 0xbf,
  0x32, 0x6f, 0x89, 0xbf, 0xa7, 0x0b, 0xaf, 0xbf, 0x4b, 0x03, 0x08, 0x40,
  0x01, 0x89, 0x96, 0xbf, 0xac, 0xf9, 0x12, 0x40, 0x6e, 0x48, 0x6d, 0xbf,
  0x81, 0xd4, 0xec, 0xbf, 0x04, 0x38, 0xb3, 0xbf, 0x57, 0xfb, 0xec, 0x3e,
  0xfa, 0x5f, 0x1c, 0x40, 0x30, 0x87, 0xa4, 0xbf, 0xa9, 0x97, 0x30, 0xbf,
  0x8e, 0xb5, 0xbe, 0xbe, 0xea, 0xac, 0x9e, 0xbf, 0xcf, 0x8a, 0xa1, 0xbf,
  0x28, 0xcf, 0xa9, 0xbf, 0x0f, 0x08, 0xa3, 0xbf, 0x2a, 0x59, 0xf3, 0xbe,
  0x8f, 0x1d, 0xe2, 0xbf, 0xf4, 0xcd, 0xb5, 0xbf, 0x48, 0xa0, 0x0b, 0x40,
  0xd3, 0x83, 0x80, 0x3c, 0x06, 0x13, 0xd7, 0xbf, 0x46, 0x67, 0x73, 0xbf,
  0xab, 0x7c, 0xd3, 0x3f, 0x2d, 0x1d, 0x9e, 0xbf, 0x5d, 0x7d, 0x17, 0x40,
  0x10, 0x95, 0xfb, 0x3f, 0xbd, 0xb5, 0xde, 0xbf, 0x43, 0x30, 0xca, 0xbf,
  0xbf, 0x6a, 0x13, 0x40, 0xd6, 0xed, 0x11, 0x40, 0x29, 0x21, 0x9c, 0xbf,
  0xa0, 0x33, 0x10, 0x40, 0xe3, 0xdc, 0x9f, 0xbf, 0xdd, 0x81, 0x15, 0x40,
  0x2d, 0x87, 0x14, 0x40, 0xf6, 0x92, 0xa2, 0x3f, 0x52, 0xe9, 0x13, 0x40,
  0x12, 0xb6, 0x15, 0xbf, 0x87, 0x2b, 0x9d, 0xbf, 0x11, 0xb6, 0xa6, 0xbf,
  0x5f, 0x51, 0x0d, 0x40, 0x97, 0x79, 0xb5, 0x3e, 0x07, 0x73, 0xb1, 0xbf,
  0xb8, 0x16, 0x02, 0xbf, 0xdc, 0x1b, 0x7a, 0xbf, 0x16, 0xfb, 0x97, 0x3f,
  0x80, 0xe7, 0x9a, 0xbf, 0x9f, 0x21, 0xd9, 0x3f, 0x0b, 0xd8, 0x6e, 0x3f,
  0xee, 0xb4, 0x09, 0x40, 0xfe, 0xe3, 0x14, 0x40, 0x20, 0xbf, 0x15, 0x40,
  0xad, 0x0f, 0x0f, 0x40, 0xba, 0xab, 0x14, 0x40, 0x78, 0x2d, 0xfd, 0x3f,
  0x56, 0x7e, 0xac, 0xbf, 0x91, 0xa1, 0x3e, 0x3f, 0x55, 0xc5, 0x1b, 0x40,
  0x8f, 0x1b, 0x10, 0x40, 0xe8, 0xb3, 0x97, 0xbf, 0x3c, 0x32, 0x07, 0x40,
  0x56, 0x06, 0x72, 0x3f, 0x37, 0x65, 0xa2, 0x3f, 0xb4, 0x79, 0x49, 0x3f,
  0x8f, 0xb7, 0xb5, 0x3e, 0x90, 0x29, 0x57, 0x3f, 0xb8, 0xfe, 0xef, 0xbf,
  0xc9, 0x31, 0x0c, 0x40, 0x48, 0x4a, 0x0a, 0x40, 0xaa, 0x95, 0xc4, 0xbf,
  0x56, 0x92, 0xb5, 0xbf, 0xd8, 0x2f, 0x0e, 0x40, 0xeb, 0xac, 0x96, 0xbf,
  0x73, 0x7e, 0x11, 0x40, 0x2f, 0x5f, 0xb1, 0xbf, 0xdd, 0xc7, 0x14, 0x3f,
  0xfa, 0x71, 0xd0, 0x3f, 0x14, 0xba, 0x03, 0xbf, 0x25, 0x56, 0xaa, 0xbf,
  0xda, 0x67, 0xf6, 0x3e, 0x6c, 0x21, 0x0b, 0x40, 0xd4, 0xf2, 0x10, 0x40,
  0xf5, 0x71, 0x01, 0xc0, 0x6d, 0xc1, 0xa5, 0xbf, 0xf6, 0x68, 0xf3, 0x3f,
  0x37, 0x7e, 0xdd, 0xbf, 0x13, 0x14, 0xcd, 0xbf, 0xb7, 0x06, 0x14, 0x40,
  0xb8, 0x41, 0x19, 0x40, 0xa1, 0x8f, 0x20, 0x40, 0x65, 0x9f, 0x1c, 0x40,
  0x06, 0x7f, 0x0b, 0xc0, 0xa3, 0xcf, 0xc0, 0xbf, 0x03, 0xab, 0xab, 0xbf,
  0x36, 0xf1, 0x1c, 0x40, 0x35, 0xe5, 0x9b, 0xbf, 0xb4, 0x9e, 0x86, 0xbf,
  0xb7, 0xfb, 0xdf, 0xbf, 0xfb, 0x80, 0xc3, 0xbf, 0xa4, 0xb7, 0x63, 0xbf,
  0x9d, 0x59, 0x1b, 0x40, 0xe2, 0x04, 0xaf, 0xbf, 0x6d, 0xfe, 0x13, 0x40,
  0xf3, 0x7a, 0xb0, 0xbf, 0xb2, 0xe4, 0xbd, 0xbf, 0x5b, 0x47, 0xf3, 0xbf,
  0xb9, 0xb9, 0x15, 0x40, 0x4d, 0xd5, 0xc9, 0xbf, 0x23, 0xde, 0xa1, 0xbf,
  0xfb, 0x5c, 0xed, 0x3f, 0x06, 0x0d, 0xce, 0xbf, 0x6c, 0xb9, 0xe0, 0xbf,
  0x05, 0x48, 0xef, 0xbf, 0xda, 0xd3, 0xb6, 0xbf, 0x43, 0x60, 0xda, 0xbf,
  0xc8, 0x61, 0xd7, 0xbf, 0x29, 0x4e, 0xbc, 0xbf, 0xe9, 0x34, 0x23, 0x40,
  0x5e, 0xd3, 0xb2, 0xbf, 0x67, 0xe1, 0x1f, 0x40, 0xa3, 0xc3, 0xd3, 0xbf,
  0x68, 0xdc, 0xb4, 0xbf, 0x28, 0xf6, 0x38, 0x3d, 0x84, 0xee, 0x13, 0xbc,
  0x02, 0x01, 0x3f, 0xbd, 0x20, 0x40, 0x28, 0xbb, 0xd2, 0xe5, 0x28, 0xbd,
  0xf6, 0x20, 0x6b, 0xbd, 0x88, 0xd1, 0x37, 0xbc, 0xde, 0xc1, 0x24, 0xbd,
  0xd4, 0xb2, 0x91, 0x3c, 0x80, 0x4c, 0xd2, 0xba, 0x6c, 0x15, 0x16, 0xbc,
  0x90, 0x6f, 0x04, 0x3d, 0x8a, 0xed, 0x21, 0x3d, 0x47, 0xbf, 0x33, 0xbd,
  0x0c, 0x98, 0x43, 0xbd, 0xbc, 0xfe, 0xe6, 0x3c, 0xd9, 0x30, 0x7d, 0xbd,
  0x9a, 0x6a, 0x2e, 0x3d, 0x0a, 0x6f, 0x28, 0x3d, 0xe6, 0x55, 0xdd, 0xbc,
  0xf0, 0xfd, 0x7a, 0x3c, 0x55, 0xb0, 0x11, 0xbd, 0xaf, 0xb5, 0x89, 0x3d,
  0x80, 0x8d, 0xad, 0xba, 0xc0, 0x25, 0x3a, 0x3d, 0x16, 0x81, 0x58, 0x3d,
  0x80, 0x54, 0xb9, 0x3a, 0x3c, 0x92, 0x11, 0x3d, 0xde, 0x41, 0x2e, 0x3d,
  0x00, 0x00, 0x66, 0xba, 0xae, 0xdf, 0xfc, 0xbc, 0x2e, 0x8a, 0x6d, 0x3d,
  0x85, 0x30, 0x8a, 0x3d, 0xc0, 0x05, 0x9e, 0x3b, 0x98, 0xa6, 0x9d, 0x3c,
  0xa5, 0x00, 0x82, 0x3d, 0x80, 0xbf, 0x90, 0x3a, 0x5c, 0xe4, 0x31, 0xbc,
  0x8e, 0x42, 0x66, 0xbd, 0xd8, 0xa3, 0x90, 0xbc, 0x60, 0x6a, 0xa5, 0x3c,
  0x56, 0xb6, 0x5a, 0xbd, 0xe0, 0xe1, 0x3d, 0x3b, 0xa0, 0xa5, 0xe8, 0x3b,
  0x00, 0x2f, 0x3d, 0xba, 0xb6, 0x19, 0x89, 0xbd, 0xd4, 0xa7, 0x5f, 0xbd,
  0x24, 0xfb, 0x86, 0xbc, 0xa0, 0xd1, 0x68, 0xbb, 0xb8, 0x68, 0x1a, 0xbd,
  0xc4, 0xc3, 0xd4, 0x3c, 0xe0, 0x47, 0x5d, 0x3b, 0x2e, 0xfa, 0x5f, 0x3d,
  0xf8, 0x92, 0x1d, 0x3c, 0x10, 0x84, 0x05, 0x3c, 0x9b, 0x79, 0x8b, 0xbd,
  0x2a, 0xf8, 0x43, 0x3d, 0x56, 0x34, 0x44, 0xbd, 0xa7, 0xc9, 0x88, 0xbd,
  0x3c, 0x39, 0x73, 0xbd, 0x02, 0xcd, 0x79, 0xbd, 0x26, 0xc4, 0x6a, 0x3d,
  0xec, 0x99, 0x55, 0x3d, 0x74, 0xb9, 0x70, 0xbd, 0x43, 0x2a, 0x2a, 0xbd,
  0x1e, 0xd9, 0xee, 0xbc, 0x02, 0xda, 0x73, 0x3d, 0x26, 0x8f, 0x3d, 0xbd,
  0x4a, 0xfa, 0x7e, 0x3d, 0x9a, 0x4a, 0x80, 0xbc, 0x98, 0x50, 0x6b, 0xbd,
  0x9e, 0x7c, 0x3b, 0x3d, 0xf0, 0x07, 0x4d, 0x3d, 0x88, 0x07, 0x53, 0x3c,
  0x20, 0x3e, 0xd5, 0x3b, 0x3c, 0xcc, 0x8b, 0x3c, 0x6f, 0xaa, 0x84, 0xbd,
  0x30, 0xde, 0x10, 0x3d, 0x05, 0x67, 0x07, 0xbd, 0x3f, 0x73, 0x74, 0xbd,
  0x20, 0x14, 0xa3, 0x3b, 0xdb, 0x41, 0x8e, 0x3d, 0xf4, 0x3c, 0xfb, 0x3c,
  0x30, 0x53, 0xed, 0xbb, 0x92, 0xba, 0x19, 0xbd, 0x31, 0xb7, 0x2f, 0xbd,
  0x11, 0x35, 0x81, 0xbd, 0xd0, 0x84, 0xc4, 0x3b, 0x20, 0xa6, 0x57, 0xbd,
  0xfc, 0x3a, 0xcf, 0x3c, 0x28, 0xf2, 0x3b, 0xbc, 0xf8, 0x62, 0x2e, 0xbd,
  0x20, 0xc0, 0x5b, 0x3d, 0x40, 0x57, 0x15, 0xbd, 0x10, 0x06, 0xf9, 0xbb,
  0x69, 0x71, 0x8f, 0x3d, 0x64, 0x59, 0x12, 0xbd, 0xc6, 0x2e, 0x08, 0x3d,
  0x09, 0xf7, 0x85, 0x3d, 0xbc, 0xe4, 0x51, 0x3d, 0xf0, 0x13, 0xce, 0xbb,
  0x68, 0x2a, 0x3a, 0x3c, 0xc0, 0x6c, 0x06, 0xbd, 0x00, 0x29, 0x47, 0xba,
  0x9c, 0xbb, 0x5c, 0xbd, 0xe6, 0x33, 0x44, 0xbd, 0x0f, 0x02, 0x2f, 0xbd,
  0x68, 0x54, 0xcc, 0x3c, 0x90, 0x8d, 0x39, 0x3c, 0x38, 0x31, 0x54, 0xbd,
  0x32, 0x2a, 0x72, 0x3d, 0x82, 0x9d, 0x5a, 0xbd, 0xcc, 0x40, 0x86, 0x3c,
  0xb4, 0x4b, 0x51, 0xbd, 0x3c, 0x42, 0x32, 0xbd, 0x40, 0xcc, 0x19, 0x3b,
  0xd4, 0xf1, 0xa0, 0x3c, 0x00, 0x0f, 0x70, 0xba, 0x4b, 0xa1, 0x8f, 0xbd,
  0x40, 0x45, 0x28, 0x3d, 0xc4, 0x21, 0x82, 0xbd, 0x53, 0x7d, 0x70, 0xbd,
  0xfa, 0x69, 0x5a, 0x3d, 0xf0, 0x3f, 0xef, 0x3b, 0x00, 0x77, 0xba, 0x39,
  0x0c, 0x84, 0xa0, 0xbc, 0x70, 0x9f, 0xc8, 0x3b, 0x9e, 0xf5, 0xdf, 0xbc,
  0xc0, 0x3c, 0xdc, 0x3b, 0xee, 0x17, 0x14, 0xbd, 0xe4, 0xb4, 0x47, 0x3d,
  0x40, 0x12, 0xda, 0x3b, 0x00, 0xa3, 0x6c, 0xbc, 0x60, 0x6a, 0xac, 0x3c,
  0x68, 0xdf, 0x0c, 0xbc, 0x02, 0xc6, 0x3b, 0xbd, 0x50, 0xf3, 0xb8, 0xbb,
  0xe8, 0x60, 0x53, 0xbc, 0xbc, 0x5b, 0x45, 0x3d, 0xb4, 0xe9, 0xc6, 0x3c,
  0xb6, 0xbe, 0x2a, 0xbd, 0x4c, 0x03, 0x62, 0xbd, 0xb7, 0x96, 0x73, 0xbd,
  0x6e, 0x2e, 0x78, 0x3d, 0x11, 0x8e, 0x2e, 0xbd, 0x68, 0x39, 0x0b, 0x3d,
  0x94, 0xbd, 0x54, 0x3d, 0x6c, 0x1c, 0xc8, 0x3c, 0x26, 0x0e, 0x32, 0xbd,
  0x37, 0xd8, 0x0f, 0xbd, 0xec, 0xa4, 0x7c, 0xbd, 0xba, 0xe3, 0x0a, 0xbd,
  0x97, 0x2b, 0x8a, 0x3d, 0xc8, 0x71, 0xb6, 0x3c, 0x00, 0x25, 0x5a, 0x3c,
  0x35, 0xdd, 0x1b, 0xbd, 0x28, 0x78, 0x82, 0x3c, 0xe0, 0x8b, 0x0a, 0xbd,
  0x1a, 0x49, 0x37, 0x3d, 0x20, 0x55, 0x11, 0xbd, 0xa0, 0x10, 0xc0, 0x3c,
  0x61, 0xb7, 0x87, 0x3d, 0x16, 0xfa, 0x70, 0xbd, 0x30, 0x7f, 0xbd, 0x3c,
  0x20, 0xa0, 0x90, 0xbb, 0x18, 0x2a, 0x7c, 0x3c, 0x00, 0xb5, 0x8a, 0xbd,
  0x48, 0x10, 0xf7, 0xbc, 0xf4, 0xf2, 0x25, 0xbd, 0xec, 0x28, 0x47, 0x3d,
  0x84, 0xdb, 0x88, 0xbc, 0x0f, 0x63, 0x4b, 0xbd, 0xde, 0x80, 0x14, 0x3d,
  0xc8, 0x89, 0x2b, 0x3c, 0x5e, 0x9d, 0x19, 0x3d, 0x47, 0x66, 0x3e, 0xbd,
  0x34, 0xf1, 0x1f, 0xbc, 0xe6, 0x4e, 0x22, 0xbd, 0x26, 0x7b, 0x26, 0x3d,
  0x70, 0x37, 0x8f, 0x3b, 0xe0, 0x04, 0xcb, 0x3c, 0x48, 0xa8, 0x38, 0xbc,
  0x68, 0xde, 0xe6, 0xbc, 0x06, 0x50, 0xe3, 0xbc, 0x14, 0x2c, 0xde, 0x3c,
  0xd0, 0xc2, 0xb5, 0x3c, 0x45, 0x6d, 0x53, 0xbd, 0x5e, 0xf2, 0x1a, 0x3d,
  0x0e, 0xcf, 0xde, 0xbc, 0xda, 0x56, 0x0d, 0x3d, 0x6f, 0x1f, 0x8d, 0xbd,
  0x70, 0xc5, 0xd3, 0x3b, 0x30, 0x6d, 0xa2, 0x3c, 0xd2, 0xf3, 0x4b, 0x3d,
  0xec, 0x8e, 0xd8, 0xbc, 0xfa, 0x74, 0x16, 0x3d, 0x10, 0x2e, 0x86, 0xbb,
  0x3a, 0x17, 0x63, 0x3d, 0x32, 0x22, 0x3d, 0xbd, 0xe0, 0xb1, 0x5d, 0xbd,
  0xd4, 0xae, 0x11, 0xbc, 0xe8, 0xd2, 0xf0, 0x3c, 0x4a, 0x4c, 0x7b, 0x3d,
  0x00, 0x76, 0xa2, 0xba, 0xfb, 0x26, 0x8f, 0x3d, 0x58, 0x8f, 0x8c, 0x3c,
  0x36, 0x9c, 0x4b, 0x3d, 0xa2, 0xbf, 0x39, 0x3d, 0x51, 0x8c, 0x8e, 0x3d,
  0x58, 0xe2, 0x2e, 0x3d, 0x12, 0x97, 0x52, 0xbd, 0x78, 0xc5, 0x18, 0x3c,
  0x82, 0xa9, 0x3d, 0xbd, 0x38, 0x84, 0x2f, 0xbc, 0x00, 0x83, 0xc1, 0x3b,
  0x70, 0xbc, 0x64, 0xbc, 0xf2, 0x12, 0x35, 0x3d, 0x26, 0x5b, 0x62, 0xbd,
  0x80, 0xcb, 0x6e, 0xbb, 0x12, 0x41, 0x7b, 0xbd, 0x00, 0xf6, 0xca, 0x3b,
  0x04, 0xd5, 0x28, 0xbc, 0xe4, 0x77, 0x3f, 0xbd, 0x71, 0x26, 0x56, 0xbd,
  0x60, 0x34, 0xca, 0xbc, 0x6c, 0xbf, 0x0e, 0x3d, 0x74, 0x07, 0x4e, 0xbd,
  0xfc, 0x6d, 0x5c, 0xbc, 0xc6, 0x0f, 0x05, 0xbd, 0xa0, 0x58, 0x66, 0xbb,
  0x94, 0x7f, 0x90, 0xbd, 0x09, 0xc4, 0x71, 0xbd, 0xea, 0x16, 0x63, 0x3d,
  0xac, 0x67, 0x8c, 0xbc, 0x14, 0xac, 0x4b, 0xbc, 0x1b, 0x1a, 0x86, 0xbd,
  0x94, 0x50, 0x22, 0x3d, 0x10, 0x85, 0x8f, 0xbb, 0x52, 0x84, 0xae, 0xbc,
  0x7c, 0x6e, 0x8f, 0xbd, 0xe2, 0x79, 0x67, 0x3d, 0xf0, 0xa2, 0x20, 0x3c,
  0x82, 0x96, 0x5b, 0x3d, 0x40, 0x1d, 0x26, 0xbb, 0x05, 0x4f, 0x80, 0x3d,
  0x9c, 0xf9, 0x94, 0x3c, 0xbe, 0x1a, 0xa0, 0xbc, 0x00, 0xa0, 0xff, 0xb8,
  0x5e, 0x02, 0x67, 0x3d, 0xd3, 0xdf, 0x8f, 0x3d, 0xf0, 0xdf, 0x5f, 0x3c,
  0x64, 0x84, 0x8e, 0x3c, 0xf0, 0x2e, 0xe4, 0x3c, 0x90, 0x7e, 0x92, 0xbb,
  0xb4, 0xbb, 0xe3, 0xbc, 0x4b, 0x0c, 0x86, 0x3d, 0x8c, 0x6a, 0x8a, 0xbd,
  0x00, 0x9f, 0xac, 0xba, 0x67, 0x27, 0x23, 0xbd, 0x3e, 0xd4, 0x0b, 0x3d,
  0x94, 0x56, 0x16, 0x3d, 0x60, 0x6e, 0xcb, 0x3c, 0xb4, 0x8b, 0x67, 0xbc,
  0xe0, 0x0c, 0x53, 0xbd, 0x5c, 0xff, 0xdd, 0xbc, 0x00, 0x86, 0x5c, 0x3b,
  0x42, 0xcd, 0x70, 0x3d, 0x94, 0x21, 0x23, 0x3d, 0xd8, 0xe8, 0x34, 0x3d,
  0x08, 0x10, 0x89, 0xbd, 0xb8, 0x70, 0x31, 0x3d, 0x80, 0xe2, 0x11, 0xba,
  0x30, 0x5c, 0x42, 0xbd, 0x86, 0x38, 0xe8, 0xbc, 0x28, 0x89, 0x3a, 0xbc,
  0x06, 0xd4, 0x6f, 0x3d, 0x20, 0xbc, 0x90, 0x3c, 0x06, 0x02, 0x62, 0x3d,
  0x84, 0xa3, 0xcd, 0xbc, 0x16, 0xa2, 0x0e, 0x3d, 0x8c, 0x59, 0x0c, 0x3d,
  0x8a, 0x32, 0x1a, 0x3d, 0xc0, 0x85, 0x8d, 0x3c, 0x6e, 0x0a, 0x02, 0xbd,
  0x18, 0x3e, 0x5a, 0xbc, 0xfe, 0xb2, 0xce, 0xbc, 0x84, 0x7d, 0x30, 0xbc,
  0xec, 0x19, 0xb8, 0xbc, 0xfa, 0xaf, 0x17, 0x3d, 0xda, 0xac, 0x22, 0xbd,
  0xb0, 0x8b, 0xe0, 0x3b, 0x1c, 0xef, 0x8c, 0xbd, 0xda, 0x59, 0xc1, 0xbc,
  0xdc, 0xc8, 0x27, 0x3d, 0x20, 0x04, 0x96, 0xbb, 0x00, 0x9f, 0xf0, 0xb9,
  0xce, 0xb9, 0xde, 0xbc, 0xe6, 0x08, 0x75, 0x3d, 0xb4, 0x85, 0x98, 0x3c,
  0xb5, 0x6d, 0x0e, 0xbd, 0xe0, 0xf7, 0xe5, 0x3c, 0x98, 0x56, 0xc1, 0xbc,
  0x00, 0xdf, 0x4a, 0xbd, 0x00, 0x03, 0x91, 0x3a, 0xdd, 0x0e, 0x89, 0x3d,
  0x20, 0x00, 0x1d, 0xbc, 0xf0, 0x37, 0xf9, 0xbb, 0x52, 0x59, 0x7c, 0xbd,
  0x0c, 0xef, 0x78, 0xbc, 0xba, 0xed, 0xa7, 0xbc, 0xc8, 0xff, 0x69, 0xbd,
  0xa4, 0x53, 0x1c, 0x3d, 0x60, 0x2e, 0x37, 0xbb, 0x52, 0x66, 0x32, 0xbd,
  0x56, 0x3d, 0x69, 0xbd, 0x7b, 0xf4, 0x81, 0x3d, 0x44, 0xde, 0xab, 0x3c,
  0xa6, 0x66, 0x62, 0x3d, 0xc6, 0x97, 0x4c, 0x3d, 0x10, 0x82, 0xcc, 0xbb,
  0xc0, 0x09, 0x03, 0xbb, 0x88, 0xcc, 0x3b, 0x3d, 0x28, 0x5f, 0x59, 0x3d,
  0x9e, 0x05, 0x56, 0xbd, 0x79, 0xdf, 0x6c, 0xbd, 0x12, 0x87, 0x4d, 0x3d,
  0x64, 0x1c, 0x70, 0xbd, 0x5c, 0x24, 0xd8, 0x3c, 0xc2, 0xc3, 0x3a, 0x3d,
  0xbe, 0xab, 0x50, 0x3d, 0x55, 0x0b, 0x6c, 0xbd, 0xc0, 0x98, 0x59, 0x3d,
  0x10, 0xcf, 0x15, 0xbc, 0x51, 0xb2, 0x80, 0xbd, 0x7b, 0xce, 0x27, 0xbd,
  0x8e, 0x57, 0x10, 0x3d, 0x64, 0x22, 0xb2, 0x3c, 0x4c, 0x78, 0x10, 0x3d,
  0x90, 0xd8, 0xf9, 0xbb, 0x0d, 0x77, 0x58, 0xbd, 0x76, 0x39, 0x23, 0x3d,
  0xac, 0x4b, 0x74, 0xbc, 0xb0, 0x0d, 0xfe, 0x3c, 0xe2, 0x7f, 0x47, 0xbd,
  0xe0, 0x95, 0x12, 0xbb, 0xba, 0xee, 0xbc, 0xbc, 0x00, 0x12, 0xc0, 0xbc,
  0x4c, 0x15, 0x20, 0xbc, 0xd0, 0xa0, 0x63, 0xbc, 0xdb, 0xd7, 0x83, 0x3d,
  0x90, 0xcb, 0x0a, 0x3c, 0xd8, 0xfc, 0x03, 0x3c, 0x8c, 0xea, 0x30, 0x3d,
  0x9e, 0xa5, 0x22, 0x3d, 0xdc, 0xba, 0x3d, 0x3d, 0x92, 0x70, 0xd3, 0xbc,
  0x84, 0x6c, 0x54, 0xbd, 0x98, 0x71, 0x2c, 0x3d, 0x9a, 0x26, 0x32, 0x3d,
  0x5e, 0xfa, 0x7d, 0x3d, 0x7c, 0xa6, 0x94, 0x3c, 0x18, 0xaf, 0x50, 0xbd,
  0x7c, 0x90, 0x55, 0xbd, 0x30, 0x89, 0x9b, 0x3c, 0x80, 0x7d, 0xd6, 0x3c,
  0x70, 0xad, 0x08, 0x3c, 0xe6, 0x5e, 0x4a, 0xbd, 0x1a, 0xaa, 0x50, 0xbd,
  0x28, 0x4e, 0xed, 0x3c, 0xa6, 0xe8, 0x7d, 0x3d, 0x00, 0xb3, 0x28, 0x3d,
  0x38, 0x4b, 0x6e, 0xbd, 0xc3, 0x39, 0x8a, 0x3d, 0xaa, 0x47, 0x8f, 0xbd,
  0xf2, 0x60, 0x8f, 0xbc, 0xdc, 0xa8, 0x00, 0x3d, 0x99, 0x7a, 0x8f, 0xbd,
  0xb0, 0x4f, 0xce, 0x3b, 0x12, 0x8d, 0x27, 0xbd, 0x64, 0x0e, 0xae, 0xbc,
  0x28, 0x8c, 0xa2, 0x3c, 0xd3, 0x4c, 0x30, 0xbd, 0xb4, 0xe9, 0xe1, 0xbc,
  0xf4, 0x53, 0x83, 0xbd, 0x5e, 0x85, 0xbc, 0xbc, 0xee, 0x7b, 0x64, 0x3d,
  0x40, 0x1c, 0x79, 0xbb, 0x80, 0x70, 0xb4, 0x3b, 0x80, 0x56, 0x2b, 0x3d,
  0x1d, 0x86, 0x1e, 0xbd, 0xb2, 0x7b, 0x6e, 0x3d, 0xf8, 0x5c, 0x0d, 0x3c,
  0x40, 0xd8, 0xb9, 0x3c, 0x54, 0x34, 0x6c, 0xbd, 0xf8, 0xa8, 0x24, 0x3d,
  0x04, 0x45, 0x1b, 0xbc, 0x0e, 0xc4, 0xb8, 0xbc, 0x60, 0xec, 0x29, 0x3b,
  0x69, 0x89, 0x8e, 0x3d, 0x12, 0x15, 0x8d, 0xbc, 0x18, 0xb8, 0x43, 0xbd,
  0x06, 0xa6, 0x67, 0x3d, 0x4a, 0xca, 0x63, 0x3d, 0x20, 0x94, 0xe3, 0xbc,
  0x1c, 0x2c, 0x1b, 0x3d, 0x55, 0x52, 0x05, 0xbd, 0x06, 0xec, 0x13, 0x3d,
  0x78, 0x57, 0x1a, 0x3c, 0x4e, 0xc3, 0x13, 0xbd, 0x0e, 0xf7, 0xf8, 0xbc,
  0xca, 0x8d, 0x08, 0x3d, 0x23, 0x37, 0x8f, 0x3d, 0x7e, 0x18, 0x37, 0xbd,
  0x44, 0x82, 0x98, 0x3c, 0xe6, 0xc9, 0x28, 0x3d, 0x72, 0x47, 0x74, 0x3d,
  0xa8, 0x5d, 0x47, 0x3c, 0xc1, 0xf6, 0x63, 0xbd, 0xbe, 0x0a, 0x8d, 0xbd,
  0xca, 0xfe, 0x2c, 0xbd, 0x60, 0xe9, 0xc8, 0x3b, 0x00, 0xdf, 0x34, 0xbd,
  0xc0, 0xdb, 0xd7, 0xba, 0x00, 0x27, 0x9f, 0x3b, 0xe6, 0xe1, 0x89, 0xbd,
  0x40, 0x3d, 0xa2, 0xba, 0x62, 0x3e, 0x72, 0x3d, 0x08, 0xde, 0x8d, 0xbc,
  0x50, 0xf7, 0xc4, 0x3c, 0x02, 0xf7, 0x1c, 0x3d, 0xbb, 0x84, 0x51, 0xbd,
  0x58, 0x3e, 0x7d, 0xbd, 0x1c, 0x9a, 0x30, 0xbd, 0x5a, 0xd8, 0x9e, 0xbc,
  0x67, 0x6e, 0x8d, 0xbd, 0x60, 0x79, 0x3f, 0x3b, 0x86, 0xb4, 0x16, 0x3d,
  0xfc, 0x8f, 0x8b, 0xbc, 0x7a, 0xc8, 0x3b, 0x3d, 0x5b, 0xd7, 0x88, 0x3d,
  0x44, 0x98, 0x71, 0xbd, 0x90, 0x35, 0xc0, 0xbb, 0x65, 0xec, 0x81, 0xbd,
  0x30, 0xef, 0xfc, 0xbc, 0x60, 0x2c, 0x2e, 0x3b, 0x10, 0x9c, 0x9a, 0x3b,
  0xc6, 0x19, 0xc4, 0xbc, 0x8f, 0x98, 0x85, 0x3d, 0xbc, 0xbb, 0x2c, 0x3d,
  0xa8, 0x69, 0xaa, 0x3c, 0xee, 0x22, 0xc2, 0xbc, 0x0f, 0x14, 0x8c, 0x3d,
  0xe8, 0xe8, 0x0c, 0x3d, 0x8a, 0xac, 0x3f, 0xbd, 0x10, 0x1c, 0xab, 0xbc,
  0x7a, 0x1e, 0x3a, 0x3d, 0xfe, 0x67, 0xd7, 0xbc, 0x60, 0x90, 0x3e, 0x3c,
  0xbf, 0xab, 0x0c, 0xbd, 0xf4, 0xe7, 0xfb, 0x3c, 0x7c, 0xc1, 0x2f, 0xbc,
  0x76, 0xcf, 0x08, 0x3d, 0xd2, 0x0a, 0x1e, 0xbd, 0x20, 0xee, 0x0e, 0xbd,
  0x9e, 0xe5, 0x7b, 0x3d, 0xe0, 0xa4, 0xe6, 0x3c, 0x38, 0x8c, 0x1c, 0x3d,
  0x86, 0x83, 0x1f, 0xbd, 0x27, 0xb3, 0x87, 0x3d, 0xb2, 0x29, 0xf4, 0xbc,
  0xc9, 0xc9, 0x1d, 0xbd, 0x9b, 0x90, 0x81, 0x3d, 0xa4, 0x50, 0x29, 0x3d,
  0x02, 0x9c, 0x16, 0x3d, 0x50, 0x80, 0x5c, 0x3d, 0xc8, 0x2b, 0xde, 0xbc,
  0xbb, 0x3d, 0x02, 0xbd, 0x20, 0x35, 0xf0, 0x3c, 0xf4, 0xff, 0xb5, 0x3c,
  0x68, 0x41, 0xff, 0x3c, 0xc0, 0x64, 0x94, 0x3c, 0x00, 0x62, 0x1f, 0x39,
  0x4a, 0x66, 0x5e, 0x3d, 0x36, 0x7f, 0x44, 0x3d, 0x8b, 0xf0, 0x8c, 0x3d,
  0x0c, 0x15, 0x48, 0x3d, 0xb0, 0x1d, 0x8a, 0xbd, 0x0e, 0xa1, 0x99, 0xbc,
  0x4c, 0xfd, 0x8a, 0x3c, 0x2a, 0x16, 0x7f, 0x3d, 0x70, 0x8d, 0x9e, 0x3b,
  0x1f, 0x89, 0x28, 0xbd, 0x82, 0xd8, 0x8a, 0xbc, 0xbe, 0x72, 0x2d, 0x3d,
  0x72, 0x96, 0x51, 0xbd, 0xc7, 0x33, 0x43, 0xbd, 0x36, 0x4f, 0x64, 0x3d,
  0xc0, 0x18, 0xd5, 0x3b, 0x0c, 0x4b, 0xc9, 0x3c, 0x72, 0x61, 0x40, 0x3d,
  0x00, 0xbd, 0x5f, 0xba, 0x62, 0x1d, 0x6e, 0x3d, 0x9a, 0x84, 0x58, 0x3d,
  0xb8, 0x44, 0x1a, 0xbd, 0xa8, 0x3a, 0x59, 0xbd, 0xb6, 0xf8, 0xfe, 0xbc,
  0x80, 0xbd, 0x1e, 0x3a, 0x60, 0xae, 0xc5, 0x3b, 0xe7, 0x52, 0x76, 0xbd,
  0x5b, 0x2f, 0x8f, 0x3d, 0x2e, 0xa6, 0x72, 0x3d, 0xf0, 0x6b, 0x94, 0xbb,
  0xb8, 0xfd, 0x69, 0x3c, 0x6e, 0x33, 0xe6, 0xbc, 0xaa, 0x7d, 0xab, 0xbc,
  0x50, 0xef, 0x97, 0x3c, 0x4a, 0x73, 0x4f, 0x3d, 0x80, 0x06, 0x15, 0x3d,
  0xdc, 0x7f, 0x38, 0x3d, 0x18, 0x61, 0xa4, 0xbc, 0xe0, 0x57, 0x25, 0x3c,
  0xcc, 0x6f, 0x6a, 0xbc, 0x0e, 0x67, 0x68, 0xbd, 0x66, 0x4e, 0x18, 0x3d,
  0x12, 0x70, 0x08, 0x3d, 0xea, 0x4f, 0x86, 0xbd, 0xb0, 0x0c, 0xc4, 0x3b,
  0xb8, 0xb5, 0x41, 0x3d, 0xc0, 0xd1, 0x43, 0x3b, 0x58, 0x4c, 0xa7, 0x3c,
  0x4e, 0xb7, 0x5e, 0x3d, 0x72, 0x85, 0x3b, 0x3d, 0x30, 0xa2, 0x8e, 0xbb,
  0xa0, 0xcd, 0x11, 0xbd, 0xf0, 0x98, 0x9a, 0xbb, 0x29, 0x69, 0x6a, 0xbd,
  0x31, 0xfa, 0x16, 0xbd, 0xbd, 0x78, 0x8a, 0x3d, 0x0c, 0x90, 0x5b, 0xbd,
  0x8c, 0xed, 0x9c, 0x3c, 0x47, 0x33, 0x00, 0xbd, 0xa6, 0x28, 0x83, 0xbc,
  0xea, 0xd2, 0x74, 0x3d, 0xb7, 0x00, 0x8a, 0x3d, 0x0a, 0x0f, 0x57, 0x3d,
  0x06, 0xad, 0x73, 0xbd, 0xf4, 0x63, 0x16, 0xbc, 0x78, 0xf4, 0x07, 0xbc,
  0x80, 0xf5, 0x1b, 0x3a, 0x87, 0x06, 0x80, 0x3d, 0x00, 0x9a, 0xc7, 0x3c,
  0x6f, 0xe9, 0x8f, 0x3d, 0xb6, 0xaa, 0xb4, 0xbc, 0xb8, 0x2b, 0xb2, 0x3c,
  0x4c, 0x24, 0x07, 0xbc, 0xef, 0x86, 0x18, 0xbd, 0xfc, 0x2a, 0xcc, 0xbc,
  0x86, 0x37, 0x60, 0x3d, 0x50, 0x24, 0x3c, 0x3d, 0x94, 0x36, 0x30, 0xbd,
  0x52, 0x04, 0x2e, 0xbd, 0x95, 0x40, 0x48, 0xbd, 0xa4, 0xbb, 0x25, 0xbc,
  0x1e, 0x45, 0x29, 0x3d, 0x46, 0x08, 0x9a, 0xbc, 0xf6, 0x10, 0x2d, 0x3d,
  0x40, 0xc9, 0x04, 0x3d, 0xb0, 0x35, 0xd6, 0xbc, 0xd0, 0xb7, 0x1a, 0x3c,
  0x90, 0x12, 0xe9, 0x3c, 0x4e, 0xa6, 0x62, 0xbd, 0x22, 0x27, 0x69, 0x3d,
  0x00, 0x30, 0xed, 0x39, 0xa0, 0xd0, 0x08, 0xbd, 0x1e, 0xf2, 0x12, 0x3d,
  0xc0, 0xf0, 0x4e, 0x3c, 0xd0, 0x1d, 0xb0, 0x3b, 0xf7, 0x20, 0x88, 0x3d,
  0x56, 0x41, 0x80, 0xbd, 0x0e, 0x15, 0x6e, 0xbd, 0x06, 0xb7, 0xb8, 0xbc,
  0x98, 0x81, 0x7f, 0x3c, 0x27, 0x6a, 0x81, 0xbd, 0x70, 0xf4, 0x57, 0xbd,
  0xfc, 0x0a, 0xdb, 0x3c, 0x44, 0x96, 0x0f, 0xbd, 0xcc, 0x29, 0x43, 0xbd,
  0x65, 0xf7, 0x89, 0xbd, 0x50, 0xba, 0x3a, 0xbd, 0x46, 0x17, 0x64, 0x3d,
  0xc0, 0x8b, 0xb2, 0x3c, 0xf0, 0x46, 0xc5, 0x3b, 0xd4, 0x0a, 0xc0, 0x3c,
  0x70, 0x8c, 0x1f, 0xbc, 0xf9, 0xc7, 0x86, 0xbd, 0x02, 0x9a, 0x74, 0x3d,
  0x40, 0x01, 0x33, 0x3b, 0xe0, 0xe2, 0x68, 0xbb, 0xae, 0x7a, 0x55, 0xbd,
  0x03, 0x9e, 0x84, 0x3d, 0x9e, 0xfe, 0xff, 0xff, 0x04, 0x00, 0x00, 0x00,
  0x0c, 0x00, 0x00, 0x00, 0x53, 0x53, 0xd2, 0xbf, 0x43, 0x0a, 0xd0, 0xbf,
  0x98, 0x26, 0x22, 0x40, 0xb6, 0xfe, 0xff, 0xff, 0x04, 0x00, 0x00, 0x00,
  0x28, 0x00, 0x00, 0x00, 0x5b, 0xec, 0x13, 0xbd, 0xc6, 0x8d, 0xa0, 0x3f,
  0x2a, 0x81, 0x3f, 0xbd, 0x93, 0x20, 0x87, 0xbd, 0x9a, 0xa6, 0x83, 0xbd,
  0xc8, 0x8d, 0x8e, 0xbd, 0xa0, 0xec, 0xb4, 0x3f, 0xc4, 0x01, 0xbd, 0xbc,
  0x3d, 0x8e, 0x7e, 0xbd, 0xb4, 0x42, 0x84, 0xbd, 0xea, 0xfe, 0xff, 0xff,
  0x04, 0x00, 0x00, 0x00, 0x78, 0x00, 0x00, 0x00, 0x48, 0x5e, 0x99, 0xbe,
  0x54, 0xa9, 0xed, 0xbf, 0x3e, 0x1e, 0x7f, 0x3e, 0x68, 0x8e, 0xa7, 0x3d,
  0x68, 0xd3, 0x2e, 0x3d, 0x8e, 0xab, 0x3b, 0xbe, 0x84, 0xb6, 0x0e, 0x40,
  0x94, 0xc8, 0xb3, 0x3d, 0x40, 0xd7, 0x4a, 0x3c, 0xf0, 0x72, 0x87, 0xbc,
  0x53, 0x88, 0x3b, 0x3d, 0x47, 0xf6, 0x2f, 0x40, 0x58, 0xb3, 0x1d, 0x3e,
  0x99, 0xe6, 0x96, 0x3e, 0xf8, 0xa5, 0x38, 0xbd, 0x18, 0x1b, 0x29, 0x3e,
  0xb4, 0xdd, 0xf4, 0xbe, 0x3c, 0xd0, 0x2d, 0x3e, 0xad, 0xe8, 0x43, 0xbe,
  0x2c, 0x24, 0x86, 0xbe, 0x4e, 0x74, 0x8a, 0xbe, 0x37, 0xfa, 0xef, 0xbf,
  0xf0, 0x97, 0x91, 0xbc, 0x7c, 0xf4, 0x2f, 0x3e, 0xc2, 0x0a, 0x40, 0x3e,
  0xd7, 0xd6, 0x83, 0x3e, 0x71, 0x5c, 0x20, 0xc0, 0xe8, 0xf9, 0xf9, 0x3d,
  0xb8, 0xad, 0x7a, 0xbd, 0xd2, 0x65, 0x3b, 0x3e, 0x8c, 0xfb, 0xff, 0xff,
  0x90, 0xfb, 0xff, 0xff, 0x0f, 0x00, 0x00, 0x00, 0x4d, 0x4c, 0x49, 0x52,
  0x20, 0x43, 0x6f, 0x6e, 0x76, 0x65, 0x72, 0x74, 0x65, 0x64, 0x2e, 0x00,
  0x01, 0x00, 0x00, 0x00, 0x14, 0x00, 0x00, 0x00, 0x00, 0x00, 0x0e, 0x00,
  0x18, 0x00, 0x14, 0x00, 0x10, 0x00, 0x0c, 0x00, 0x08, 0x00, 0x04, 0x00,
  0x0e, 0x00, 0x00, 0x00, 0x14, 0x00, 0x00, 0x00, 0x1c, 0x00, 0x00, 0x00,
  0xec, 0x00, 0x00, 0x00, 0xf0, 0x00, 0x00, 0x00, 0xf4, 0x00, 0x00, 0x00,
  0x04, 0x00, 0x00, 0x00, 0x6d, 0x61, 0x69, 0x6e, 0x00, 0x00, 0x00, 0x00,
  0x03, 0x00, 0x00, 0x00, 0x94, 0x00, 0x00, 0x00, 0x50, 0x00, 0x00, 0x00,
  0x14, 0x00, 0x00, 0x00, 0x00, 0x00, 0x0e, 0x00, 0x1a, 0x00, 0x14, 0x00,
  0x10, 0x00, 0x0c, 0x00, 0x0b, 0x00, 0x04, 0x00, 0x0e, 0x00, 0x00, 0x00,
  0x1c, 0x00, 0x00, 0x00, 0x00, 0x00, 0x00, 0x09, 0x1c, 0x00, 0x00, 0x00,
  0x20, 0x00, 0x00, 0x00, 0x01, 0x00, 0x00, 0x00, 0x00, 0x00, 0x06, 0x00,
  0x08, 0x00, 0x04, 0x00, 0x06, 0x00, 0x00, 0x00, 0x00, 0x00, 0x80, 0x3f,
  0x01, 0x00, 0x00, 0x00, 0x07, 0x00, 0x00, 0x00, 0x01, 0x00, 0x00, 0x00,
  0x06, 0x00, 0x00, 0x00, 0xce, 0xff, 0xff, 0xff, 0x10, 0x00, 0x00, 0x00,
  0x00, 0x00, 0x00, 0x08, 0x0c, 0x00, 0x00, 0x00, 0x10, 0x00, 0x00, 0x00,
  0x50, 0xfc, 0xff, 0xff, 0x01, 0x00, 0x00, 0x00, 0x06, 0x00, 0x00, 0x00,
  0x03, 0x00, 0x00, 0x00, 0x05, 0x00, 0x00, 0x00, 0x01, 0x00, 0x00, 0x00,
  0x03, 0x00, 0x00, 0x00, 0x00, 0x00, 0x0e, 0x00, 0x16, 0x00, 0x00, 0x00,
  0x10, 0x00, 0x0c, 0x00, 0x0b, 0x00, 0x04, 0x00, 0x0e, 0x00, 0x00, 0x00,
  0x18, 0x00, 0x00, 0x00, 0x00, 0x00, 0x00, 0x08, 0x18, 0x00, 0x00, 0x00,
  0x1c, 0x00, 0x00, 0x00, 0x00, 0x00, 0x06, 0x00, 0x08, 0x00, 0x07, 0x00,
  0x06, 0x00, 0x00, 0x00, 0x00, 0x00, 0x00, 0x01, 0x01, 0x00, 0x00, 0x00,
  0x05, 0x00, 0x00, 0x00, 0x03, 0x00, 0x00, 0x00, 0x00, 0x00, 0x00, 0x00,
  0x04, 0x00, 0x00, 0x00, 0x02, 0x00, 0x00, 0x00, 0x01, 0x00, 0x00, 0x00,
  0x07, 0x00, 0x00, 0x00, 0x01, 0x00, 0x00, 0x00, 0x00, 0x00, 0x00, 0x00,
  0x08, 0x00, 0x00, 0x00, 0x0c, 0x03, 0x00, 0x00, 0xb4, 0x02, 0x00, 0x00,
  0x3c, 0x02, 0x00, 0x00, 0xdc, 0x01, 0x00, 0x00, 0x88, 0x01, 0x00, 0x00,
  0xe4, 0x00, 0x00, 0x00, 0x60, 0x00, 0x00, 0x00, 0x04, 0x00, 0x00, 0x00,
  0x2a, 0xfd, 0xff, 0xff, 0x00, 0x00, 0x00, 0x01, 0x14, 0x00, 0x00, 0x00,
  0x1c, 0x00, 0x00, 0x00, 0x1c, 0x00, 0x00, 0x00, 0x08, 0x00, 0x00, 0x00,
  0x34, 0x00, 0x00, 0x00, 0x02, 0x00, 0x00, 0x00, 0xff, 0xff, 0xff, 0xff,
  0x03, 0x00, 0x00, 0x00, 0x14, 0xfd, 0xff, 0xff, 0x1b, 0x00, 0x00, 0x00,
  0x53, 0x74, 0x61, 0x74, 0x65, 0x66, 0x75, 0x6c, 0x50, 0x61, 0x72, 0x74,
  0x69, 0x74, 0x69, 0x6f, 0x6e, 0x65, 0x64, 0x43, 0x61, 0x6c, 0x6c, 0x5f,
  0x31, 0x3a, 0x30, 0x00, 0x02, 0x00, 0x00, 0x00, 0x01, 0x00, 0x00, 0x00,
  0x03, 0x00, 0x00, 0x00, 0x82, 0xfd, 0xff, 0xff, 0x00, 0x00, 0x00, 0x01,
  0x14, 0x00, 0x00, 0x00, 0x1c, 0x00, 0x00, 0x00, 0x1c, 0x00, 0x00, 0x00,
  0x07, 0x00, 0x00, 0x00, 0x5c, 0x00, 0x00, 0x00, 0x02, 0x00, 0x00, 0x00,
  0xff, 0xff, 0xff, 0xff, 0x03, 0x00, 0x00, 0x00, 0x6c, 0xfd, 0xff, 0xff,
  0x42, 0x00, 0x00, 0x00, 0x66, 0x75, 0x6e, 0x63, 0x74, 0x69, 0x6f, 0x6e,
  0x61, 0x6c, 0x5f, 0x31, 0x33, 0x5f, 0x31, 0x2f, 0x64, 0x65, 0x6e, 0x73,
  0x65, 0x5f, 0x39, 0x5f, 0x31, 0x2f, 0x4d, 0x61, 0x74, 0x4d, 0x75, 0x6c,
  0x3b, 0x66, 0x75, 0x6e, 0x63, 0x74, 0x69, 0x6f, 0x6e, 0x61, 0x6c, 0x5f,
  0x31, 0x33, 0x5f, 0x31, 0x2f, 0x64, 0x65, 0x6e, 0x73, 0x65, 0x5f, 0x39,
  0x5f, 0x31, 0x2f, 0x42, 0x69, 0x61, 0x73, 0x41, 0x64, 0x64, 0x00, 0x00,
  0x02, 0x00, 0x00, 0x00, 0x01, 0x00, 0x00, 0x00, 0x03, 0x00, 0x00, 0x00,
  0x02, 0xfe, 0xff, 0xff, 0x00, 0x00, 0x00, 0x01, 0x14, 0x00, 0x00, 0x00,
  0x1c, 0x00, 0x00, 0x00, 0x1c, 0x00, 0x00, 0x00, 0x06, 0x00, 0x00, 0x00,
  0x7c, 0x00, 0x00, 0x00, 0x02, 0x00, 0x00, 0x00, 0xff, 0xff, 0xff, 0xff,
  0x0a, 0x00, 0x00, 0x00, 0xec, 0xfd, 0xff, 0xff, 0x61, 0x00, 0x00, 0x00,
  0x66, 0x75, 0x6e, 0x63, 0x74, 0x69, 0x6f, 0x6e, 0x61, 0x6c, 0x5f, 0x31,
  0x33, 0x5f, 0x31, 0x2f, 0x64, 0x65, 0x6e, 0x73, 0x65, 0x5f, 0x38, 0x5f,
  0x31, 0x2f, 0x4d, 0x61, 0x74, 0x4d, 0x75, 0x6c, 0x3b, 0x66, 0x75, 0x6e,
  0x63, 0x74, 0x69, 0x6f, 0x6e, 0x61, 0x6c, 0x5f, 0x31, 0x33, 0x5f, 0x31,
  0x2f, 0x64, 0x65, 0x6e, 0x73, 0x65, 0x5f, 0x38, 0x5f, 0x31, 0x2f, 0x52,
  0x65, 0x6c, 0x75, 0x3b, 0x66, 0x75, 0x6e, 0x63, 0x74, 0x69, 0x6f, 0x6e,
  0x61, 0x6c, 0x5f, 0x31, 0x33, 0x5f, 0x31, 0x2f, 0x64, 0x65, 0x6e, 0x73,
  0x65, 0x5f, 0x38, 0x5f, 0x31, 0x2f, 0x42, 0x69, 0x61, 0x73, 0x41, 0x64,
  0x64, 0x00, 0x00, 0x00, 0x02, 0x00, 0x00, 0x00, 0x01, 0x00, 0x00, 0x00,
  0x0a, 0x00, 0x00, 0x00, 0xf6, 0xfe, 0xff, 0xff, 0x00, 0x00, 0x00, 0x01,
  0x10, 0x00, 0x00, 0x00, 0x10, 0x00, 0x00, 0x00, 0x05, 0x00, 0x00, 0x00,
  0x30, 0x00, 0x00, 0x00, 0x7c, 0xfe, 0xff, 0xff, 0x20, 0x00, 0x00, 0x00,
  0x66, 0x75, 0x6e, 0x63, 0x74, 0x69, 0x6f, 0x6e, 0x61, 0x6c, 0x5f, 0x31,
  0x33, 0x5f, 0x31, 0x2f, 0x64, 0x65, 0x6e, 0x73, 0x65, 0x5f, 0x38, 0x5f,
  0x31, 0x2f, 0x4d, 0x61, 0x74, 0x4d, 0x75, 0x6c, 0x00, 0x00, 0x00, 0x00,
  0x02, 0x00, 0x00, 0x00, 0x0a, 0x00, 0x00, 0x00, 0xc8, 0x00, 0x00, 0x00,
  0x46, 0xff, 0xff, 0xff, 0x00, 0x00, 0x00, 0x01, 0x10, 0x00, 0x00, 0x00,
  0x10, 0x00, 0x00, 0x00, 0x04, 0x00, 0x00, 0x00, 0x40, 0x00, 0x00, 0x00,
  0xcc, 0xfe, 0xff, 0xff, 0x30, 0x00, 0x00, 0x00, 0x66, 0x75, 0x6e, 0x63,
  0x74, 0x69, 0x6f, 0x6e, 0x61, 0x6c, 0x5f, 0x31, 0x33, 0x5f, 0x31, 0x2f,
  0x64, 0x65, 0x6e, 0x73, 0x65, 0x5f, 0x39, 0x5f, 0x31, 0x2f, 0x42, 0x69,
  0x61, 0x73, 0x41, 0x64, 0x64, 0x2f, 0x52, 0x65, 0x61, 0x64, 0x56, 0x61,
  0x72, 0x69, 0x61, 0x62, 0x6c, 0x65, 0x4f, 0x70, 0x00, 0x00, 0x00, 0x00,
  0x01, 0x00, 0x00, 0x00, 0x03, 0x00, 0x00, 0x00, 0xa2, 0xff, 0xff, 0xff,
  0x00, 0x00, 0x00, 0x01, 0x10, 0x00, 0x00, 0x00, 0x10, 0x00, 0x00, 0x00,
  0x03, 0x00, 0x00, 0x00, 0x40, 0x00, 0x00, 0x00, 0x28, 0xff, 0xff, 0xff,
  0x30, 0x00, 0x00, 0x00, 0x66, 0x75, 0x6e, 0x63, 0x74, 0x69, 0x6f, 0x6e,
  0x61, 0x6c, 0x5f, 0x31, 0x33, 0x5f, 0x31, 0x2f, 0x64, 0x65, 0x6e, 0x73,
  0x65, 0x5f, 0x38, 0x5f, 0x31, 0x2f, 0x42, 0x69, 0x61, 0x73, 0x41, 0x64,
  0x64, 0x2f, 0x52, 0x65, 0x61, 0x64, 0x56, 0x61, 0x72, 0x69, 0x61, 0x62,
  0x6c, 0x65, 0x4f, 0x70, 0x00, 0x00, 0x00, 0x00, 0x01, 0x00, 0x00, 0x00,
  0x0a, 0x00, 0x00, 0x00, 0x00, 0x00, 0x16, 0x00, 0x18, 0x00, 0x14, 0x00,
  0x00, 0x00, 0x10, 0x00, 0x0c, 0x00, 0x08, 0x00, 0x00, 0x00, 0x00, 0x00,
  0x00, 0x00, 0x07, 0x00, 0x16, 0x00, 0x00, 0x00, 0x00, 0x00, 0x00, 0x01,
  0x10, 0x00, 0x00, 0x00, 0x10, 0x00, 0x00, 0x00, 0x02, 0x00, 0x00, 0x00,
  0x1c, 0x00, 0x00, 0x00, 0x9c, 0xff, 0xff, 0xff, 0x0e, 0x00, 0x00, 0x00,
  0x61, 0x72, 0x69, 0x74, 0x68, 0x2e, 0x63, 0x6f, 0x6e, 0x73, 0x74, 0x61,
  0x6e, 0x74, 0x00, 0x00, 0x02, 0x00, 0x00, 0x00, 0x03, 0x00, 0x00, 0x00,
  0x0a, 0x00, 0x00, 0x00, 0x00, 0x00, 0x16, 0x00, 0x1c, 0x00, 0x18, 0x00,
  0x00, 0x00, 0x14, 0x00, 0x10, 0x00, 0x0c, 0x00, 0x00, 0x00, 0x00, 0x00,
  0x08, 0x00, 0x07, 0x00, 0x16, 0x00, 0x00, 0x00, 0x00, 0x00, 0x00, 0x01,
  0x14, 0x00, 0x00, 0x00, 0x20, 0x00, 0x00, 0x00, 0x20, 0x00, 0x00, 0x00,
  0x01, 0x00, 0x00, 0x00, 0x40, 0x00, 0x00, 0x00, 0x02, 0x00, 0x00, 0x00,
  0xff, 0xff, 0xff, 0xff, 0xc8, 0x00, 0x00, 0x00, 0x04, 0x00, 0x04, 0x00,
  0x04, 0x00, 0x00, 0x00, 0x21, 0x00, 0x00, 0x00, 0x73, 0x65, 0x72, 0x76,
  0x69, 0x6e, 0x67, 0x5f, 0x64, 0x65, 0x66, 0x61, 0x75, 0x6c, 0x74, 0x5f,
  0x6b, 0x65, 0x72, 0x61, 0x73, 0x5f, 0x74, 0x65, 0x6e, 0x73, 0x6f, 0x72,
  0x5f, 0x33, 0x36, 0x3a, 0x30, 0x00, 0x00, 0x00, 0x02, 0x00, 0x00, 0x00,
  0x01, 0x00, 0x00, 0x00, 0xc8, 0x00, 0x00, 0x00, 0x02, 0x00, 0x00, 0x00,
  0x20, 0x00, 0x00, 0x00, 0x04, 0x00, 0x00, 0x00, 0xf4, 0xff, 0xff, 0xff,
  0x19, 0x00, 0x00, 0x00, 0x00, 0x00, 0x00, 0x19, 0x0c, 0x00, 0x0c, 0x00,
  0x0b, 0x00, 0x00, 0x00, 0x00, 0x00, 0x04, 0x00, 0x0c, 0x00, 0x00, 0x00,
  0x09, 0x00, 0x00, 0x00, 0x00, 0x00, 0x00, 0x09};

const int g_model_len = sizeof(g_model);
